{
  "version": "1.0",
  "truncation": null,
  "padding": null,
  "added_tokens": [
    {
      "id": 0,
      "content": "<unk>",
      "single_word": false,
      "lstrip": false,
      "rstrip": false,
      "normalized": false,
      "special": true
    },
    {
      "id": 1,
      "content": "<s>",
      "single_word": false,
      "lstrip": false,
      "rstrip": false,
      "normalized": false,
      "special": true
    },
    {
      "id": 2,
      "content": "</s>",
      "single_word": false,
      "lstrip": false,
      "rstrip": false,
      "normalized": false,
      "special": true
    },
    {
      "id": 3,
      "content": "<pad>",
      "single_word": false,
      "lstrip": false,
      "rstrip": false,
      "normalized": false,
      "special": true
    }
  ],
  "normalizer": null,
  "pre_tokenizer": {
    "type": "ByteLevel",
    "add_prefix_space": false,
    "trim_offsets": true,
    "use_regex": true
  },
  "post_processor": null,
  "decoder": {
    "type": "ByteLevel",
    "add_prefix_space": true,
    "trim_offsets": true,
    "use_regex": true
  },
  "model": {
    "type": "BPE",
    "dropout": null,
    "unk_token": "<unk>",
    "continuing_subword_prefix": null,
    "end_of_word_suffix": null,
    "fuse_unk": false,
    "byte_fallback": false,
    "ignore_merges": false,
    "vocab": {
      "<unk>": 0,
      "<s>": 1,
      "</s>": 2,
      "<pad>": 3,
      "!": 4,
      "\"": 5,
      "#": 6,
      "$": 7,
      "%": 8,
      "&": 9,
      "'": 10,
      "(": 11,
      ")": 12,
      "*": 13,
      "+": 14,
      ",": 15,
      "-": 16,
      ".": 17,
      "/": 18,
      "0": 19,
      "1": 20,
      "2": 21,
      "3": 22,
      "4": 23,
      "5": 24,
      "6": 25,
      "7": 26,
      "8": 27,
      "9": 28,
      ":": 29,
      ";": 30,
      "<": 31,
      "=": 32,
      ">": 33,
      "?": 34,
      "@": 35,
      "A": 36,
      "B": 37,
      "C": 38,
      "D": 39,
      "E": 40,
      "F": 41,
      "G": 42,
      "H": 43,
      "I": 44,
      "J": 45,
      "K": 46,
      "L": 47,
      "M": 48,
      "N": 49,
      "O": 50,
      "P": 51,
      "Q": 52,
      "R": 53,
      "S": 54,
      "T": 55,
      "U": 56,
      "V": 57,
      "W": 58,
      "X": 59,
      "Y": 60,
      "Z": 61,
      "[": 62,
      "\\": 63,
      "]": 64,
      "^": 65,
      "_": 66,
      "`": 67,
      "a": 68,
      "b": 69,
      "c": 70,
      "d": 71,
      "e": 72,
      "f": 73,
      "g": 74,
      "h": 75,
      "i": 76,
      "j": 77,
      "k": 78,
      "l": 79,
      "m": 80,
      "n": 81,
      "o": 82,
      "p": 83,
      "q": 84,
      "r": 85,
      "s": 86,
      "t": 87,
      "u": 88,
      "v": 89,
      "w": 90,
      "x": 91,
      "y": 92,
      "z": 93,
      "{": 94,
      "|": 95,
      "}": 96,
      "~": 97,
      "¡": 98,
      "¢": 99,
      "£": 100,
      "¤": 101,
      "¥": 102,
      "¦": 103,
      "§": 104,
      "¨": 105,
      "©": 106,
      "ª": 107,
      "«": 108,
      "¬": 109,
      "®": 110,
      "¯": 111,
      "°": 112,
      "±": 113,
      "²": 114,
      "³": 115,
      "´": 116,
      "µ": 117,
      "¶": 118,
      "·": 119,
      "¸": 120,
      "¹": 121,
      "º": 122,
      "»": 123,
      "¼": 124,
      "½": 125,
      "¾": 126,
      "¿": 127,
      "À": 128,
      "Á": 129,
      "Â": 130,
      "Ã": 131,
      "Ä": 132,
      "Å": 133,
      "Æ": 134,
      "Ç": 135,
      "È": 136,
      "É": 137,
      "Ê": 138,
      "Ë": 139,
      "Ì": 140,
      "Í": 141,
      "Î": 142,
      "Ï": 143,
      "Ð": 144,
      "Ñ": 145,
      "Ò": 146,
      "Ó": 147,
      "Ô": 148,
      "Õ": 149,
      "Ö": 150,
      "×": 151,
      "Ø": 152,
      "Ù": 153,
      "Ú": 154,
      "Û": 155,
      "Ü": 156,
      "Ý": 157,
      "Þ": 158,
      "ß": 159,
      "à": 160,
      "á": 161,
      "â": 162,
      "ã": 163,
      "ä": 164,
      "å": 165,
      "æ": 166,
      "ç": 167,
      "è": 168,
      "é": 169,
      "ê": 170,
      "ë": 171,
      "ì": 172,
      "í": 173,
      "î": 174,
      "ï": 175,
      "ð": 176,
      "ñ": 177,
      "ò": 178,
      "ó": 179,
      "ô": 180,
      "õ": 181,
      "ö": 182,
      "÷": 183,
      "ø": 184,
      "ù": 185,
      "ú": 186,
      "û": 187,
      "ü": 188,
      "ý": 189,
      "þ": 190,
      "ÿ": 191,
      "Ā": 192,
      "ā": 193,
      "Ă": 194,
      "ă": 195,
      "Ą": 196,
      "ą": 197,
      "Ć": 198,
      "ć": 199,
      "Ĉ": 200,
      "ĉ": 201,
      "Ċ": 202,
      "ċ": 203,
      "Č": 204,
      "č": 205,
      "Ď": 206,
      "ď": 207,
      "Đ": 208,
      "đ": 209,
      "Ē": 210,
      "ē": 211,
      "Ĕ": 212,
      "ĕ": 213,
      "Ė": 214,
      "ė": 215,
      "Ę": 216,
      "ę": 217,
      "Ě": 218,
      "ě": 219,
      "Ĝ": 220,
      "ĝ": 221,
      "Ğ": 222,
      "ğ": 223,
      "Ġ": 224,
      "ġ": 225,
      "Ģ": 226,
      "ģ": 227,
      "Ĥ": 228,
      "ĥ": 229,
      "Ħ": 230,
      "ħ": 231,
      "Ĩ": 232,
      "ĩ": 233,
      "Ī": 234,
      "ī": 235,
      "Ĭ": 236,
      "ĭ": 237,
      "Į": 238,
      "į": 239,
      "İ": 240,
      "ı": 241,
      "Ĳ": 242,
      "ĳ": 243,
      "Ĵ": 244,
      "ĵ": 245,
      "Ķ": 246,
      "ķ": 247,
      "ĸ": 248,
      "Ĺ": 249,
      "ĺ": 250,
      "Ļ": 251,
      "ļ": 252,
      "Ľ": 253,
      "ľ": 254,
      "Ŀ": 255,
      "ŀ": 256,
      "Ł": 257,
      "ł": 258,
      "Ń": 259,
      "Ġt": 260,
      "Ġa": 261,
      "in": 262,
      "he": 263,
      "re": 264,
      "ï¼": 265,
      "ä¸": 266,
      "on": 267,
      "at": 268,
      "çļ": 269,
      "çļĦ": 270,
      "ï¼Į": 271,
      "Ġs": 272,
      "Ġc": 273,
      "nd": 274,
      "ãĢ": 275,
      "er": 276,
      "Ġthe": 277,
      "es": 278,
      "en": 279,
      "or": 280,
      "an": 281,
      "Ġand": 282,
      "ing": 283,
      "Ġp": 284,
      "it": 285,
      "al": 286,
      "ãĢĤ": 287,
      "Ġo": 288,
      "Ġw": 289,
      "ä»": 290,
      "Ġto": 291,
      "is": 292,
      "ou": 293,
      "Ġm": 294,
      "äº": 295,
      "Ġin": 296,
      "Ġf": 297,
      "Ġb": 298,
      "ed": 299,
      "ion": 300,
      "åı": 301,
      "ic": 302,
      "Ġd": 303,
      "Ġof": 304,
      "le": 305,
      "ar": 306,
      "ro": 307,
      "ĠĠ": 308,
      "åħ": 309,
      "ent": 310,
      "æľ": 311,
      "Ġe": 312,
      "åĴ": 313,
      "è¿": 314,
      "ä½": 315,
      "åĴĮ": 316,
      "æĪ": 317,
      "å®": 318,
      "åĪ": 319,
      "ve": 320,
      "us": 321,
      "Ġre": 322,
      "Ġh": 323,
      "Ġth": 324,
      "as": 325,
      "ct": 326,
      "çĶ": 327,
      "om": 328,
      "åľ": 329,
      "å¤": 330,
      "æĺ": 331,
      "åĬ": 332,
      "åĲ": 333,
      "ä¸Ģ": 334,
      "im": 335,
      "è¯": 336,
      "æĸ": 337,
      "ation": 338,
      "lo": 339,
      "ç»": 340,
      "Ġbe": 341,
      "ãĢģ": 342,
      "id": 343,
      "Ġcan": 344,
      "il": 345,
      "æĺ¯": 346,
      "ä¹": 347,
      "è®": 348,
      "ĠA": 349,
      "Ġthat": 350,
      "ĠT": 351,
      "ä»¥": 352,
      "ch": 353,
      "Ġy": 354,
      "ce": 355,
      "ï¼ļ": 356,
      "ot": 357,
      "ers": 358,
      "Ġn": 359,
      "éĢ": 360,
      "ra": 361,
      "å°": 362,
      "Ġg": 363,
      "Ġyou": 364,
      "åŃ": 365,
      "Ġpro": 366,
      "et": 367,
      "åº": 368,
      "åľ¨": 369,
      "ly": 370,
      "Ġis": 371,
      "ä¸ª": 372,
      "Ġl": 373,
      "ur": 374,
      "Ġfor": 375,
      "åı¯": 376,
      "éĩ": 377,
      "st": 378,
      "çļĦæ": 379,
      "ut": 380,
      "Ġhe": 381,
      "if": 382,
      "ĥ½": 383,
      "ä¼": 384,
      "ĠI": 385,
      "è¡": 386,
      "ir": 387,
      "ith": 388,
      "å¹": 389,
      "Ġare": 390,
      "ig": 391,
      "Ġst": 392,
      "el": 393,
      "ol": 394,
      "å¸": 395,
      "ul": 396,
      "æĿ": 397,
      "æĪĳ": 398,
      "Ġon": 399,
      "è¦": 400,
      "æľī": 401,
      "æĹ": 402,
      "å¯": 403,
      "è§": 404,
      "è¦ģ": 405,
      "Ġus": 406,
      "ay": 407,
      "æķ": 408,
      "çī": 409,
      "ow": 410,
      "ment": 411,
      "çĶ¨": 412,
      "ess": 413,
      "ä¸Ń": 414,
      "ä»¬": 415,
      "äºº": 416,
      "åĩ": 417,
      "Ġex": 418,
      "ĠĠĠĠ": 419,
      "åĽ": 420,
      "åĮ": 421,
      "å¼": 422,
      "Ġcon": 423,
      "se": 424,
      "èĥ½": 425,
      "çİ": 426,
      "Ġan": 427,
      "Ġwith": 428,
      "ä¸º": 429,
      "ate": 430,
      "iv": 431,
      "am": 432,
      "Ġas": 433,
      "ure": 434,
      "è¿Ļ": 435,
      "åĨ": 436,
      "çŃ": 437,
      "Ġor": 438,
      "å·": 439,
      "Ġal": 440,
      "ies": 441,
      "ç§": 442,
      "Ġim": 443,
      "æĢ": 444,
      "ver": 445,
      "ab": 446,
      "äºĨ": 447,
      "Ġsu": 448,
      "Ġde": 449,
      "ge": 450,
      "th": 451,
      "åı¯ä»¥": 452,
      "èĢ": 453,
      "ä¸į": 454,
      "å¾": 455,
      "ĠAI": 456,
      "Ġen": 457,
      "éĹ": 458,
      "æī": 459,
      "ak": 460,
      "ive": 461,
      "Ġmo": 462,
      "å¥": 463,
      "éĿ": 464,
      "çĽ": 465,
      "ity": 466,
      "ä¿": 467,
      "un": 468,
      "è´": 469,
      "åį": 470,
      "Ġit": 471,
      "Ġimp": 472,
      "ect": 473,
      "æł": 474,
      "å½": 475,
      "èĩ": 476,
      "é¢": 477,
      "åĵ": 478,
      "æ³": 479,
      "ort": 480,
      "ad": 481,
      "æŀ": 482,
      "em": 483,
      "Ġcom": 484,
      "å¦": 485,
      "her": 486,
      "ere": 487,
      "ĠS": 488,
      "ial": 489,
      "ĠC": 490,
      "ĠThe": 491,
      "çĲ": 492,
      "çĶŁ": 493,
      "æĦ": 494,
      "pp": 495,
      "æŃ": 496,
      "æĸ¹": 497,
      "qu": 498,
      "Ġwh": 499,
      "å¦Ĥ": 500,
      "éľ": 501,
      "ant": 502,
      "Ġle": 503,
      "Ġv": 504,
      "æĭ": 505,
      "æĬ": 506,
      "ust": 507,
      "æĹ¶": 508,
      "çŃī": 509,
      "åĳ": 510,
      "å¯¹": 511,
      "ter": 512,
      "ld": 513,
      "è¡Į": 514,
      "Ġch": 515,
      "ud": 516,
      "éľĢ": 517,
      "æ°": 518,
      "æĪĲ": 519,
      "Ġ|": 520,
      "ac": 521,
      "ain": 522,
      "iz": 523,
      "æı": 524,
      "ions": 525,
      "Ġha": 526,
      "æĽ": 527,
      "--": 528,
      "æĿ¥": 529,
      "ome": 530,
      "å¿": 531,
      "'s": 532,
      "Ġne": 533,
      "est": 534,
      "ä¾": 535,
      "um": 536,
      "åĪ°": 537,
      "åľ°": 538,
      "ist": 539,
      "âĢ": 540,
      "çī©": 541,
      "ä¸Ģä¸ª": 542,
      "lp": 543,
      "æİ": 544,
      "èĩª": 545,
      "Ġhelp": 546,
      "Ġtheir": 547,
      "æĶ": 548,
      "ä½ľ": 549,
      "ä¼ļ": 550,
      "æĮ": 551,
      "æĪĳä»¬": 552,
      "nt": 553,
      "äºİ": 554,
      "åĪĨ": 555,
      "res": 556,
      "pe": 557,
      "åĩº": 558,
      "ide": 559,
      "æĥ": 560,
      "ĠH": 561,
      "è¾": 562,
      "ĠM": 563,
      "ff": 564,
      "æ¯": 565,
      "od": 566,
      "ical": 567,
      "Ġwor": 568,
      "ä¸Ĭ": 569,
      "are": 570,
      "æĽ´": 571,
      "Ġyour": 572,
      "ä¸ĭ": 573,
      "èµ": 574,
      "ations": 575,
      "æķ°": 576,
      "Ġte": 577,
      "åİ": 578,
      "çĲĨ": 579,
      "ĠTh": 580,
      "è¿ĩ": 581,
      "å¹¶": 582,
      "du": 583,
      "éĿ¢": 584,
      "Ġad": 585,
      "ill": 586,
      "æµ": 587,
      "å¥½": 588,
      "oc": 589,
      "act": 590,
      "éľĢè¦ģ": 591,
      "ä»ĸ": 592,
      "å±": 593,
      "Ġr": 594,
      "Ġmore": 595,
      "åŃ¦": 596,
      "ç®": 597,
      "igh": 598,
      "äºĽ": 599,
      "ĠB": 600,
      "åĬ¨": 601,
      "åĵģ": 602,
      "èī": 603,
      "ple": 604,
      "Ġinc": 605,
      "åĲĮ": 606,
      "Ġexp": 607,
      "ould": 608,
      "ä½ł": 609,
      "æį": 610,
      "æıĲ": 611,
      "å¤§": 612,
      "çİ°": 613,
      "pt": 614,
      "ĠP": 615,
      "all": 616,
      "åĬł": 617,
      "ç§į": 618,
      "Ġse": 619,
      "åĬĽ": 620,
      "out": 621,
      "Ġhave": 622,
      "çº": 623,
      "ä½ĵ": 624,
      "Ġprov": 625,
      "åĮĸ": 626,
      "å¤ļ": 627,
      "å®ļ": 628,
      "Ġused": 629,
      "éĢļ": 630,
      "cc": 631,
      "è¿Ľ": 632,
      "æ´": 633,
      "Ġsh": 634,
      "Ġab": 635,
      "os": 636,
      "Ġres": 637,
      "ĠThis": 638,
      "ç¨": 639,
      "æĢ§": 640,
      "age": 641,
      "ri": 642,
      "æ¸": 643,
      "able": 644,
      "åŃĲ": 645,
      "Ġby": 646,
      "åıĳ": 647,
      "éĩı": 648,
      "åºĶ": 649,
      "Ġlo": 650,
      "ä½¿": 651,
      "åħ¶": 652,
      "é«": 653,
      "éĻ": 654,
      "é«ĺ": 655,
      "åº¦": 656,
      "è§£": 657,
      "é£": 658,
      "å°Ĩ": 659,
      "æ³ķ": 660,
      "and": 661,
      "ä¿Ŀ": 662,
      "ans": 663,
      "for": 664,
      "rom": 665,
      "reat": 666,
      "Ġpl": 667,
      "çļĦç": 668,
      "å¸¸": 669,
      "è½": 670,
      "Ġwe": 671,
      "è¡¨": 672,
      "ake": 673,
      "æĪĸ": 674,
      "é¢ĺ": 675,
      "åŁ": 676,
      "Ġme": 677,
      "æĸĩ": 678,
      "ther": 679,
      "ke": 680,
      "å®¶": 681,
      "åĲĪ": 682,
      "æľĢ": 683,
      "ine": 684,
      "Ġsome": 685,
      "ç±": 686,
      "éĩį": 687,
      "æŀľ": 688,
      "ĠW": 689,
      "ĠE": 690,
      "éĺ": 691,
      "our": 692,
      "rou": 693,
      "çĤ": 694,
      "æ±": 695,
      "åħ³": 696,
      "Ġint": 697,
      "ance": 698,
      "ä¹Ł": 699,
      "éģ": 700,
      "ĠĠĠ": 701,
      "å®ĥ": 702,
      "ag": 703,
      "æ¬": 704,
      "00": 705,
      "è°": 706,
      "ult": 707,
      "yst": 708,
      "éĹ´": 709,
      "ç³": 710,
      "Ġtr": 711,
      "pl": 712,
      "art": 713,
      "æĦŁ": 714,
      "æĤ": 715,
      "ata": 716,
      "ĠF": 717,
      "form": 718,
      "è®¡": 719,
      "Ġfrom": 720,
      "ĠD": 721,
      "éĹ®": 722,
      "ight": 723,
      "ces": 724,
      "æį®": 725,
      "lop": 726,
      "ä¹ĭ": 727,
      "Ġfe": 728,
      "åģ": 729,
      "velop": 730,
      "Ġ1": 731,
      "åĽł": 732,
      "ks": 733,
      "æ²": 734,
      "Ġu": 735,
      "å°ı": 736,
      "ystem": 737,
      "Ġdis": 738,
      "ĠR": 739,
      "gy": 740,
      "å·¥": 741,
      "ç¨ĭ": 742,
      "å¢": 743,
      "ence": 744,
      "èĤ": 745,
      "ç¡": 746,
      "Ġtra": 747,
      "å»": 748,
      "åħ¥": 749,
      "ign": 750,
      "alth": 751,
      "Ġsuch": 752,
      "ach": 753,
      "æĻ": 754,
      "arn": 755,
      "Ġdata": 756,
      "è¶": 757,
      "å®ŀ": 758,
      "so": 759,
      "Ġdevelop": 760,
      "ç¤": 761,
      "Ġacc": 762,
      "ast": 763,
      "èĢĮ": 764,
      "Ġ\"": 765,
      "Ġother": 766,
      "å»º": 767,
      "Ġeff": 768,
      "ç«": 769,
      "Ġman": 770,
      "åħ¬": 771,
      "åĢ": 772,
      "çĦ": 773,
      "ms": 774,
      "å¼ı": 775,
      "èī²": 776,
      "å¾Ĺ": 777,
      "ific": 778,
      "Ġj": 779,
      "Ġro": 780,
      "Ġhas": 781,
      "chn": 782,
      "olo": 783,
      "åĪ¶": 784,
      "èĬ": 785,
      "ä½¿çĶ¨": 786,
      "ous": 787,
      "ual": 788,
      "Ġat": 789,
      "Ġem": 790,
      "ell": 791,
      "Ġsystem": 792,
      "Ġhealth": 793,
      "ities": 794,
      "Ġexam": 795,
      "ib": 796,
      "éĶ": 797,
      "Ġabout": 798,
      "äº§": 799,
      "åĲİ": 800,
      "æĦı": 801,
      "ç±»": 802,
      "Ġpre": 803,
      "æĤ¨": 804,
      "Ġalso": 805,
      "ents": 806,
      "Ġind": 807,
      "ind": 808,
      "éĢĤ": 809,
      "Ġtechn": 810,
      "ress": 811,
      "æĥħ": 812,
      "éĹ®é¢ĺ": 813,
      "Ġuse": 814,
      "ï¼Ł": 815,
      "Ġincl": 816,
      "Ġspe": 817,
      "ich": 818,
      "ps": 819,
      "æľº": 820,
      "Ġthey": 821,
      "ie": 822,
      "Ġhow": 823,
      "Ġwork": 824,
      "ä¸ļ": 825,
      "ç´": 826,
      "Ġimpro": 827,
      "Ġlearn": 828,
      "æĸ°": 829,
      "çĤ¹": 830,
      "Ġcont": 831,
      "ard": 832,
      "çĦ¶": 833,
      "æľ¬": 834,
      "ç³»": 835,
      "ç¡®": 836,
      "è®¾": 837,
      "åħ·": 838,
      "éĢī": 839,
      "èĢħ": 840,
      "éħ": 841,
      "gh": 842,
      "__": 843,
      "Ġnot": 844,
      "çľ": 845,
      "çĽ¸": 846,
      "Ġprovide": 847,
      "åī": 848,
      "ional": 849,
      "Ġens": 850,
      "ä¸İ": 851,
      "è´¨": 852,
      "ential": 853,
      "ç»ı": 854,
      "å¿ĥ": 855,
      "ang": 856,
      "æŃ¤": 857,
      "end": 858,
      "Ġpo": 859,
      "è¿Ľè¡Į": 860,
      "ice": 861,
      "Ġ-": 862,
      "Ġway": 863,
      "å·±": 864,
      "Ġ2": 865,
      "ime": 866,
      "ç½": 867,
      "èĩªå·±": 868,
      "Ġun": 869,
      "bot": 870,
      "Ġinclud": 871,
      "ated": 872,
      "æ°´": 873,
      "éķ": 874,
      "æĮģ": 875,
      "ä»£": 876,
      "é¡": 877,
      "æīĢ": 878,
      "çĿ": 879,
      "pport": 880,
      "ood": 881,
      "ike": 882,
      "ru": 883,
      "Ġcomm": 884,
      "ĠL": 885,
      "ä¿¡": 886,
      "ĠG": 887,
      "çŁ": 888,
      "çĶµ": 889,
      "Ġwas": 890,
      "low": 891,
      "erv": 892,
      "åĮħ": 893,
      "ĠĠĠĠĠĠĠĠ": 894,
      "Ġwhe": 895,
      "dit": 896,
      "Ġwhich": 897,
      "Ġcomp": 898,
      "éª": 899,
      "ore": 900,
      "ç¾": 901,
      "Ġ=": 902,
      "çī¹": 903,
      "iff": 904,
      "ert": 905,
      "æģ": 906,
      "rit": 907,
      "Ġrec": 908,
      "åĨħ": 909,
      "æĺİ": 910,
      "ors": 911,
      "Ġpat": 912,
      "----": 913,
      "æŁ": 914,
      "Ġapp": 915,
      "ns": 916,
      "åĬ¡": 917,
      "aly": 918,
      "ace": 919,
      "æ´»": 920,
      "ä¾Ľ": 921,
      "av": 922,
      "ä¸»": 923,
      "Ġpers": 924,
      "çĥ": 925,
      "è¯¥": 926,
      "Ġmy": 927,
      "ç©": 928,
      "eri": 929,
      "è®©": 930,
      "æĬĢ": 931,
      "éķ¿": 932,
      "ack": 933,
      "ĠN": 934,
      "Ġdiff": 935,
      "Ġthis": 936,
      "åĿ": 937,
      "Ġensure": 938,
      "å½ĵ": 939,
      "Ġout": 940,
      "Ġcl": 941,
      "Ġk": 942,
      "é¦": 943,
      "ount": 944,
      "çİ¯": 945,
      "åĬ©": 946,
      "Ġtechnolo": 947,
      "Ġthese": 948,
      "ful": 949,
      "éļ": 950,
      "æ·": 951,
      "ä¸ĢäºĽ": 952,
      "Ġsoc": 953,
      "å¼Ģ": 954,
      "å¤©": 955,
      "Ġev": 956,
      "Ġredu": 957,
      "Ġthem": 958,
      "Ġ(": 959,
      "éĥ½": 960,
      "æĪ·": 961,
      "è·": 962,
      "åľº": 963,
      "æ°Ķ": 964,
      "ĠY": 965,
      "è¯Ń": 966,
      "éĢļè¿ĩ": 967,
      "å±ķ": 968,
      "Ġco": 969,
      "å½±": 970,
      "ç¬": 971,
      "Ġanaly": 972,
      "æ¯Ķ": 973,
      "åħ¨": 974,
      "Ġimprove": 975,
      "ç»ĵ": 976,
      "å¹´": 977,
      "çķ": 978,
      "çĿĢ": 979,
      "Ġhum": 980,
      "Ġqu": 981,
      "ç®Ĺ": 982,
      "ĠO": 983,
      "é£Ł": 984,
      "ility": 985,
      "Ġsystems": 986,
      "åıĺ": 987,
      "ail": 988,
      "ç¼": 989,
      "çł": 990,
      "è¿Ļä¸ª": 991,
      "æıĲä¾Ľ": 992,
      "ase": 993,
      "åŀ": 994,
      "ments": 995,
      "Ġpot": 996,
      "Ġany": 997,
      "ä½Ĩ": 998,
      "Ġcons": 999,
      "ĠIt": 1000,
      "æł¼": 1001,
      "Ġar": 1002,
      "æľ¯": 1003,
      "éĿŀ": 1004,
      "Ġdo": 1005,
      "Ġmay": 1006,
      "æĭ©": 1007,
      "ue": 1008,
      "éĢīæĭ©": 1009,
      "ry": 1010,
      "éĥ": 1011,
      "Ġlike": 1012,
      "ong": 1013,
      "èģ": 1014,
      "``": 1015,
      "ile": 1016,
      "æ±Ĥ": 1017,
      "Ġnew": 1018,
      "ient": 1019,
      "Ġimpact": 1020,
      "è¿ĺ": 1021,
      "æ³¨": 1022,
      "ä¹Ī": 1023,
      "çĽ®": 1024,
      "âĢľ": 1025,
      "âĢĿ": 1026,
      "ef": 1027,
      "ä¾ĭ": 1028,
      "Ġpotential": 1029,
      "ok": 1030,
      "åı¯èĥ½": 1031,
      "Ġtrans": 1032,
      "Ġact": 1033,
      "ï¼ī": 1034,
      "Ġspec": 1035,
      "æ¶": 1036,
      "Ġwill": 1037,
      "äº¤": 1038,
      "ize": 1039,
      "ç¾İ": 1040,
      "å¸Ĥ": 1041,
      "Ġstud": 1042,
      "pon": 1043,
      "èº": 1044,
      "ä¸įåĲĮ": 1045,
      "one": 1046,
      "å¾Ī": 1047,
      "åıĬ": 1048,
      "å¦Ĥæŀľ": 1049,
      "çĲĥ": 1050,
      "ange": 1051,
      "Ġneed": 1052,
      "å¤ĸ": 1053,
      "ety": 1054,
      "aking": 1055,
      "è¯·": 1056,
      "ater": 1057,
      "Ġperson": 1058,
      "ident": 1059,
      "Ġso": 1060,
      "Ġmake": 1061,
      "å¹³": 1062,
      "å¤Ł": 1063,
      "èº«": 1064,
      "ï¼Ī": 1065,
      "Ġinform": 1066,
      "æ¡": 1067,
      "äºĭ": 1068,
      "åıĹ": 1069,
      "ased": 1070,
      "ild": 1071,
      "Ġoff": 1072,
      "Ġthere": 1073,
      "cis": 1074,
      "è¢": 1075,
      "éĥ¨": 1076,
      "æ¯ı": 1077,
      "ract": 1078,
      "ass": 1079,
      "Ġlearning": 1080,
      "åĸ": 1081,
      "å½¢": 1082,
      "ire": 1083,
      "ä»İ": 1084,
      "bots": 1085,
      "èĻ": 1086,
      "å¸®": 1087,
      "Ġdes": 1088,
      "ĠIn": 1089,
      "cess": 1090,
      "Ġpe": 1091,
      "ify": 1092,
      "Ġwho": 1093,
      "ä¹ł": 1094,
      "æľŁ": 1095,
      "Ġexperi": 1096,
      "éĤ": 1097,
      "Ġsc": 1098,
      "ep": 1099,
      "ä½ķ": 1100,
      "Ġtime": 1101,
      "éĿŀå¸¸": 1102,
      "æĭ¬": 1103,
      "åķ": 1104,
      "ä»¥ä¸ĭ": 1105,
      "éģĵ": 1106,
      "Ġcommun": 1107,
      "Ġcould": 1108,
      "ap": 1109,
      "èĲ": 1110,
      "è°ĥ": 1111,
      "lic": 1112,
      "duct": 1113,
      "Ġits": 1114,
      "cy": 1115,
      "è¯´": 1116,
      "Ġmed": 1117,
      "Ġcol": 1118,
      "ular": 1119,
      "éĩįè¦ģ": 1120,
      "Ġsp": 1121,
      "åĪ©": 1122,
      "èµ·": 1123,
      "Ġprovid": 1124,
      "ices": 1125,
      "åĻ": 1126,
      "æĸĻ": 1127,
      "Ġimport": 1128,
      "ural": 1129,
      "åŃĹ": 1130,
      "Ġund": 1131,
      "int": 1132,
      "Ġover": 1133,
      "åı¸": 1134,
      "æł¹": 1135,
      "é¥": 1136,
      "ples": 1137,
      "ä»ĸä»¬": 1138,
      "gra": 1139,
      "uring": 1140,
      "now": 1141,
      "åįķ": 1142,
      "è¿ĻäºĽ": 1143,
      "åīį": 1144,
      "å®ī": 1145,
      "Ġpr": 1146,
      "åĮħæĭ¬": 1147,
      "ç»Ļ": 1148,
      "The": 1149,
      "ä½į": 1150,
      "å§": 1151,
      "ç´ł": 1152,
      "åĳĺ": 1153,
      "Ġident": 1154,
      "åŀĭ": 1155,
      "Ġadd": 1156,
      "å¼º": 1157,
      "æĺ¯ä¸Ģ": 1158,
      "ip": 1159,
      "gor": 1160,
      "Ġsupport": 1161,
      "ne": 1162,
      "Ġdiffere": 1163,
      "åħĥ": 1164,
      "Ġass": 1165,
      "åĨ³": 1166,
      "éĽ": 1167,
      "åĲį": 1168,
      "Ġgo": 1169,
      "Ġtechnology": 1170,
      "æĢ»": 1171,
      "è®®": 1172,
      "Ġinter": 1173,
      "Ġinv": 1174,
      "Ġour": 1175,
      "æķĪ": 1176,
      "ustom": 1177,
      "Ġrel": 1178,
      "ife": 1179,
      "åĻ¨": 1180,
      "ings": 1181,
      "ä»·": 1182,
      "Ġpart": 1183,
      "è¢«": 1184,
      "æīĭ": 1185,
      "ary": 1186,
      "Ġrespon": 1187,
      "ĊĠĠĠ": 1188,
      "å¥½çļĦ": 1189,
      "ative": 1190,
      "å¸®åĬ©": 1191,
      "ç»Ł": 1192,
      "æĶ¾": 1193,
      "ĠHere": 1194,
      "çģ": 1195,
      "Ġbut": 1196,
      "æģ¯": 1197,
      "æŃ£": 1198,
      "ark": 1199,
      "åħ¬åı¸": 1200,
      "ory": 1201,
      "å¢ĥ": 1202,
      "lect": 1203,
      "éŁ": 1204,
      "æĥ³": 1205,
      "é£İ": 1206,
      "ating": 1207,
      "Ġam": 1208,
      "its": 1209,
      "æ»": 1210,
      "gorith": 1211,
      "åĵį": 1212,
      "ures": 1213,
      "Ġeffect": 1214,
      "Ġshould": 1215,
      "Ġper": 1216,
      "è±": 1217,
      "ç²": 1218,
      "ict": 1219,
      "Ġalgorith": 1220,
      "uc": 1221,
      "rough": 1222,
      "ä»»": 1223,
      "ä»¶": 1224,
      "Ġbet": 1225,
      "ia": 1226,
      "Ġanalyz": 1227,
      "æł¹æį®": 1228,
      "ized": 1229,
      "æµģ": 1230,
      "è§Ĥ": 1231,
      "è£": 1232,
      "æłĩ": 1233,
      "iron": 1234,
      "Ġcustom": 1235,
      "Ġreg": 1236,
      "Ġpersonal": 1237,
      "èĥ½å¤Ł": 1238,
      "ics": 1239,
      "ivid": 1240,
      "çĪ": 1241,
      "èµĦ": 1242,
      "æŃ¥": 1243,
      "å®¹": 1244,
      "åĪĽ": 1245,
      "èĪ": 1246,
      "ä¹Ĳ": 1247,
      "å¯¼": 1248,
      "gan": 1249,
      "èĬĤ": 1250,
      "Ġall": 1251,
      "ens": 1252,
      "ame": 1253,
      "ness": 1254,
      "Ġup": 1255,
      "ĠU": 1256,
      "èĢĥ": 1257,
      "elf": 1258,
      "åĢ¼": 1259,
      "å°ĳ": 1260,
      "æľį": 1261,
      "ari": 1262,
      "thical": 1263,
      "viron": 1264,
      "èĥ": 1265,
      "ord": 1266,
      "Ġsign": 1267,
      "éĩĮ": 1268,
      "ound": 1269,
      "ople": 1270,
      "åŁº": 1271,
      "Ġinformation": 1272,
      "Ġidentify": 1273,
      "åĽŀ": 1274,
      "Ġcre": 1275,
      "éŁ³": 1276,
      "ible": 1277,
      "ub": 1278,
      "è¿Ĳ": 1279,
      "Ġlead": 1280,
      "æ¸¸": 1281,
      "æ¬¡": 1282,
      "åĨĻ": 1283,
      "éĤ£": 1284,
      "get": 1285,
      "èį": 1286,
      "Ġexample": 1287,
      "ä¼ĺ": 1288,
      "å½±åĵį": 1289,
      "ish": 1290,
      "xt": 1291,
      "æº": 1292,
      "éªĮ": 1293,
      "ob": 1294,
      "å®¢": 1295,
      "å¤ĩ": 1296,
      "åģ¥": 1297,
      "è½¦": 1298,
      "ç¤¾": 1299,
      "ividual": 1300,
      "ered": 1301,
      "les": 1302,
      "Ġenviron": 1303,
      "Ġpeople": 1304,
      "æĺŁ": 1305,
      "çĸ": 1306,
      "çĭ": 1307,
      "Ġdet": 1308,
      "æĹł": 1309,
      "Ġif": 1310,
      "ose": 1311,
      "ite": 1312,
      "å¢ŀ": 1313,
      "éĴ": 1314,
      "åĲĮæĹ¶": 1315,
      "è¿°": 1316,
      "æĸ¹å¼ı": 1317,
      "åĽ½": 1318,
      "é»": 1319,
      "å¤Ħ": 1320,
      "Ġexamples": 1321,
      "æ®": 1322,
      "Ġinto": 1323,
      "æĮĩ": 1324,
      "Ġhuman": 1325,
      "åĲĳ": 1326,
      "ç¤º": 1327,
      "æķ°æį®": 1328,
      "Ġ3": 1329,
      "ĠJ": 1330,
      "èı": 1331,
      "çİ¯å¢ĥ": 1332,
      "als": 1333,
      "erst": 1334,
      "Ġethical": 1335,
      "ç»Ħ": 1336,
      "ä¼ł": 1337,
      "Ġdifferent": 1338,
      "Ġknow": 1339,
      "åºı": 1340,
      "Ġindividual": 1341,
      "æıĲé«ĺ": 1342,
      "round": 1343,
      "å°±": 1344,
      "åıĸ": 1345,
      "åŃĺ": 1346,
      "ä¸¤": 1347,
      "çŁ¥": 1348,
      "ources": 1349,
      "ck": 1350,
      "å£": 1351,
      "ines": 1352,
      "è¾¾": 1353,
      "Ġmany": 1354,
      "æķ´": 1355,
      "æł·": 1356,
      "ditional": 1357,
      "omm": 1358,
      "çĶ±": 1359,
      "éĢł": 1360,
      "å®ĥä»¬": 1361,
      "ues": 1362,
      "Ġment": 1363,
      "Ġimportant": 1364,
      "Ġopt": 1365,
      "Ġloc": 1366,
      "ph": 1367,
      "Ġprocess": 1368,
      "Ġalgorithms": 1369,
      "è®¾è®¡": 1370,
      "Ġsocial": 1371,
      "very": 1372,
      "åĪĻ": 1373,
      "ä¾ĭå¦Ĥ": 1374,
      "è®¤": 1375,
      "Ġaut": 1376,
      "Ġserv": 1377,
      "gg": 1378,
      "äº§åĵģ": 1379,
      "è§Ħ": 1380,
      "çľĭ": 1381,
      "vel": 1382,
      "æĸ¹æ³ķ": 1383,
      "Ġben": 1384,
      "åĽłæŃ¤": 1385,
      "care": 1386,
      "per": 1387,
      "åĬŁ": 1388,
      "å»ºè®®": 1389,
      "Ġpos": 1390,
      "æ¤": 1391,
      "we": 1392,
      "åĮº": 1393,
      "iqu": 1394,
      "Ġreal": 1395,
      "æĹ¥": 1396,
      "Ġreduce": 1397,
      "af": 1398,
      "angu": 1399,
      "Ġsk": 1400,
      "Ġed": 1401,
      "erstand": 1402,
      "åĨµ": 1403,
      "mot": 1404,
      "åħĪ": 1405,
      "ç¥": 1406,
      "åºĶè¯¥": 1407,
      "Ġthrough": 1408,
      "Ġconc": 1409,
      "åıĳå±ķ": 1410,
      "è¯ķ": 1411,
      "æ¡Ī": 1412,
      "Ġenvironment": 1413,
      "åı£": 1414,
      "Ġadv": 1415,
      "åĪ«": 1416,
      "Ġbenef": 1417,
      "æ¸ħ": 1418,
      "åĳ³": 1419,
      "åħī": 1420,
      "Ġdevelopment": 1421,
      "eng": 1422,
      "å¦Ĥä½ķ": 1423,
      "ç®¡": 1424,
      "ivers": 1425,
      "åĲĦ": 1426,
      "Ġris": 1427,
      "row": 1428,
      "ergy": 1429,
      "è®¡ç®Ĺ": 1430,
      "ä¿¡æģ¯": 1431,
      "Ġproduct": 1432,
      "è¾ĥ": 1433,
      "è®º": 1434,
      "èĩªå·±çļĦ": 1435,
      "æĬ¤": 1436,
      "åıį": 1437,
      "åħ¶ä»ĸ": 1438,
      "åĪĹ": 1439,
      "ç»Ĩ": 1440,
      "ç©º": 1441,
      "Ġgreat": 1442,
      "ear": 1443,
      "æºĲ": 1444,
      "ject": 1445,
      "çĶŁæ´»": 1446,
      "ä¸ŃçļĦ": 1447,
      "Ġunderstand": 1448,
      "èĭ": 1449,
      "hat": 1450,
      "Ġprogra": 1451,
      "çĬ": 1452,
      "éĩĳ": 1453,
      "Ġincluding": 1454,
      "Ġaccess": 1455,
      "ĠĠĠĠĠĠĠ": 1456,
      "è¯Ĩ": 1457,
      "ç¦": 1458,
      "og": 1459,
      "è£ħ": 1460,
      "Ġart": 1461,
      "Ġwrit": 1462,
      "Ġincre": 1463,
      "Ġph": 1464,
      "æĸ¹éĿ¢": 1465,
      "Ġpract": 1466,
      "Ġusing": 1467,
      "é¡¹": 1468,
      "æİ¥": 1469,
      "Ġways": 1470,
      "Ġlangu": 1471,
      "æĶ¯": 1472,
      "Ġchall": 1473,
      "åİ»": 1474,
      "____": 1475,
      "imate": 1476,
      "æĸŃ": 1477,
      "è¨": 1478,
      "Ġwell": 1479,
      "ll": 1480,
      "Ġpol": 1481,
      "æĢģ": 1482,
      "Ġra": 1483,
      "Can": 1484,
      "åİŁ": 1485,
      "ber": 1486,
      "è¨Ģ": 1487,
      "ç«ĭ": 1488,
      "Ġgen": 1489,
      "éħį": 1490,
      "æ·±": 1491,
      "te": 1492,
      "ä¸ī": 1493,
      "ç§ĳ": 1494,
      "ĠFor": 1495,
      "çº¿": 1496,
      "çħ": 1497,
      "æ¼": 1498,
      "åķĨ": 1499,
      "æĿĲ": 1500,
      "Ġsignific": 1501,
      "Ġgu": 1502,
      "Ġdecis": 1503,
      "Ġtrain": 1504,
      "Ġag": 1505,
      "Ġcreat": 1506,
      "å®Į": 1507,
      "æĹ¶éĹ´": 1508,
      "Ġone": 1509,
      "èĦ": 1510,
      "Ġnat": 1511,
      "åŃ¦ä¹ł": 1512,
      "çļĦæķ": 1513,
      "ced": 1514,
      "Ġwhen": 1515,
      "Ġbi": 1516,
      "èİ": 1517,
      "æĽ´åĬł": 1518,
      "ives": 1519,
      "port": 1520,
      "å·¥ä½ľ": 1521,
      "ving": 1522,
      "Ġbeen": 1523,
      "æĻº": 1524,
      "Ġlife": 1525,
      "å¼ķ": 1526,
      "arm": 1527,
      "çİĩ": 1528,
      "çĶ¨æĪ·": 1529,
      "ä¹ī": 1530,
      "ä»½": 1531,
      "è¯Ŀ": 1532,
      "iness": 1533,
      "com": 1534,
      "åº·": 1535,
      "åĩı": 1536,
      "ä»Ģ": 1537,
      "è¾ĵ": 1538,
      "Ġvari": 1539,
      "con": 1540,
      "Ġmod": 1541,
      "ä»Ģä¹Ī": 1542,
      "Ġenergy": 1543,
      "æĬĢæľ¯": 1544,
      "ertain": 1545,
      "mm": 1546,
      "verall": 1547,
      "åĪĴ": 1548,
      "Ġrobots": 1549,
      "Ġorgan": 1550,
      "æİ¨": 1551,
      "ants": 1552,
      "åĩĨ": 1553,
      "ds": 1554,
      "æŀģ": 1555,
      "çĻ": 1556,
      "Ġrequ": 1557,
      "Ġess": 1558,
      "ç®Ģ": 1559,
      "ustain": 1560,
      "æ¨": 1561,
      "Ġstr": 1562,
      "cing": 1563,
      "ability": 1564,
      "ree": 1565,
      "Ġeduc": 1566,
      "åİĨ": 1567,
      "Ġcreate": 1568,
      "åģ¥åº·": 1569,
      "Ġdesign": 1570,
      "ips": 1571,
      "åģļ": 1572,
      "èĬ±": 1573,
      "ink": 1574,
      "èıľ": 1575,
      "æī¾": 1576,
      "æ®µ": 1577,
      "æµĭ": 1578,
      "ĠV": 1579,
      "ĠBy": 1580,
      "åĶ": 1581,
      "é¦ĸ": 1582,
      "è¯į": 1583,
      "Ġwhere": 1584,
      "Ġdisc": 1585,
      "äºĨè§£": 1586,
      "ric": 1587,
      "ä¸Ķ": 1588,
      "è¶³": 1589,
      "æĺ¯ä¸Ģä¸ª": 1590,
      "arch": 1591,
      "ç§¯": 1592,
      "å¸¦": 1593,
      "Ġwhile": 1594,
      "Ġsignificant": 1595,
      "çłģ": 1596,
      "æĪ¿": 1597,
      "Ġbeing": 1598,
      "Ġlanguage": 1599,
      "itive": 1600,
      "20": 1601,
      "Ġanalyze": 1602,
      "æĻ¯": 1603,
      "èĮ": 1604,
      "rib": 1605,
      "æ¨¡": 1606,
      "ĠSt": 1607,
      "è´¹": 1608,
      "'t": 1609,
      "Ġhealthcare": 1610,
      "Ġexperience": 1611,
      "Ġ5": 1612,
      "ä¸ªäºº": 1613,
      "ays": 1614,
      "è±¡": 1615,
      "plo": 1616,
      "Ġwould": 1617,
      "èĻĳ": 1618,
      "æĶ¶": 1619,
      "é¢Ħ": 1620,
      "é¢Ĩ": 1621,
      "ä¿ĿæĮģ": 1622,
      "ences": 1623,
      "åıª": 1624,
      "èĩ´": 1625,
      "æĪı": 1626,
      "Ġmental": 1627,
      "Ġfew": 1628,
      "ates": 1629,
      "è¿ĩç¨ĭ": 1630,
      "å®īåħ¨": 1631,
      "Ġsustain": 1632,
      "Ġwere": 1633,
      "å¤ª": 1634,
      "çĮ": 1635,
      "Ġspecific": 1636,
      "Ġworld": 1637,
      "çŃĶ": 1638,
      "```": 1639,
      "Ġtake": 1640,
      "åħ»": 1641,
      "éĢŁ": 1642,
      "ever": 1643,
      "SS": 1644,
      "éĶĢ": 1645,
      "Ġbo": 1646,
      "hes": 1647,
      "Ġmus": 1648,
      "æľįåĬ¡": 1649,
      "è§Ĵ": 1650,
      "ten": 1651,
      "æŀĲ": 1652,
      "pow": 1653,
      "dict": 1654,
      "vent": 1655,
      "10": 1656,
      "çļĦæĹ": 1657,
      "ĸçķ": 1658,
      "Ġprot": 1659,
      "ç½®": 1660,
      "Ġhigh": 1661,
      "Ġbus": 1662,
      "Ġindust": 1663,
      "åĲ¦": 1664,
      "cial": 1665,
      "äººä»¬": 1666,
      "ĠAs": 1667,
      "åĳĬ": 1668,
      "ade": 1669,
      "æĶ¹": 1670,
      "çĹ": 1671,
      "Ġhad": 1672,
      "Ġher": 1673,
      "Ġjust": 1674,
      "ï¼Ľ": 1675,
      "è´Ń": 1676,
      "ç¬¬": 1677,
      "éĵ": 1678,
      "Ġwater": 1679,
      "Ġfood": 1680,
      "éĺŁ": 1681,
      "aus": 1682,
      "Ġchalleng": 1683,
      "åħį": 1684,
      "æĸĩåĮĸ": 1685,
      "Ġmost": 1686,
      "é¸": 1687,
      "ç½ĳ": 1688,
      "çĽ´": 1689,
      "Ġsm": 1690,
      "Ġactiv": 1691,
      "ploy": 1692,
      "Overall": 1693,
      "å¿«": 1694,
      "ruct": 1695,
      "Ġindividuals": 1696,
      "å§ĭ": 1697,
      "gies": 1698,
      "æŁ¥": 1699,
      "çĪ±": 1700,
      "iety": 1701,
      "In": 1702,
      "åĪĨæŀĲ": 1703,
      "è§Ĩ": 1704,
      "æ¸©": 1705,
      "ç»´": 1706,
      "olut": 1707,
      "åŁŁ": 1708,
      "ommend": 1709,
      "Ġcomple": 1710,
      "æķĻ": 1711,
      "Ġbu": 1712,
      "Ġeducation": 1713,
      "ather": 1714,
      "Ġ4": 1715,
      "ting": 1716,
      "Ġfind": 1717,
      "æ²¡": 1718,
      "Ġhis": 1719,
      "ä¹ĭéĹ´": 1720,
      "Ġeffective": 1721,
      "Ġatt": 1722,
      "Ġrese": 1723,
      "èĥ½åĬĽ": 1724,
      "åŁİ": 1725,
      "Ġallow": 1726,
      "Ġav": 1727,
      "Ġpromot": 1728,
      "æĻºèĥ½": 1729,
      "æ»¡": 1730,
      "åħ±": 1731,
      "iew": 1732,
      "come": 1733,
      "ç³»ç»Ł": 1734,
      "Ġrespons": 1735,
      "äºĴ": 1736,
      "Ġcult": 1737,
      "powered": 1738,
      "Ġrecommend": 1739,
      "èĲ¥": 1740,
      "OSS": 1741,
      "Ġchange": 1742,
      "è¯ģ": 1743,
      "ved": 1744,
      "æİĴ": 1745,
      "è§£åĨ³": 1746,
      "ici": 1747,
      "ĠHow": 1748,
      "Ġfeel": 1749,
      "æľĪ": 1750,
      "Ġwhat": 1751,
      "ä»¥åıĬ": 1752,
      "Ġsee": 1753,
      "åŃ©": 1754,
      "bs": 1755,
      "Ġsur": 1756,
      "æ£": 1757,
      "ality": 1758,
      "Ġvis": 1759,
      "ç¡®ä¿Ŀ": 1760,
      "pect": 1761,
      "å®ŀçİ°": 1762,
      "Ġcare": 1763,
      "å¹¿": 1764,
      "ills": 1765,
      "åºŃ": 1766,
      "ases": 1767,
      "å¤į": 1768,
      "åºĶçĶ¨": 1769,
      "çļĦæĥ": 1770,
      "ards": 1771,
      "Ġaddress": 1772,
      "Ġcompan": 1773,
      "Ġinvol": 1774,
      "Ġcustomer": 1775,
      "åĽłä¸º": 1776,
      "Ġstudents": 1777,
      "Ġins": 1778,
      "æ³¨æĦı": 1779,
      "æŀĦ": 1780,
      "æ¬¢": 1781,
      "æµ·": 1782,
      "åıĤ": 1783,
      "èĩªçĦ¶": 1784,
      "é©": 1785,
      "ĠThese": 1786,
      "wn": 1787,
      "æĺĵ": 1788,
      "çĬ¶": 1789,
      "ren": 1790,
      "Ġtreat": 1791,
      "Ġbenefits": 1792,
      "ĊĠĠĠĠĠĠĠ": 1793,
      "å¯¹äºİ": 1794,
      "æĢĿ": 1795,
      "ider": 1796,
      "ĠYes": 1797,
      "ĠK": 1798,
      "åĸľ": 1799,
      "Ġke": 1800,
      "Ġeng": 1801,
      "Ġpop": 1802,
      "ost": 1803,
      "pare": 1804,
      "Ġmon": 1805,
      "æ¬¾": 1806,
      "ĠMOSS": 1807,
      "Ġemot": 1808,
      "Ġac": 1809,
      "ç¼ĸ": 1810,
      "fore": 1811,
      "åı¥": 1812,
      "Ġval": 1813,
      "ily": 1814,
      "Ġiss": 1815,
      "èĤī": 1816,
      "èĩ³": 1817,
      "æ¸¸æĪı": 1818,
      "ween": 1819,
      "Ġinclude": 1820,
      "Ġprotect": 1821,
      "åħ³ç³»": 1822,
      "éĻ©": 1823,
      "Ġsever": 1824,
      "Ġthan": 1825,
      "éľĢæ±Ĥ": 1826,
      "ç»ĥ": 1827,
      "ĠThey": 1828,
      "iss": 1829,
      "ys": 1830,
      "Ġjob": 1831,
      "éĺ³": 1832,
      "æĲ": 1833,
      "Ġbetween": 1834,
      "Ġmach": 1835,
      "--------": 1836,
      "èĢĥèĻĳ": 1837,
      "è´¨éĩı": 1838,
      "Ġbusiness": 1839,
      "wor": 1840,
      "ick": 1841,
      "eg": 1842,
      "åħħ": 1843,
      "ç¯": 1844,
      "æĿ¡": 1845,
      "ner": 1846,
      "apt": 1847,
      "Ġappro": 1848,
      "Ġplay": 1849,
      "æ²¡æľī": 1850,
      "¤Ĳ": 1851,
      "æľª": 1852,
      "æĪĺ": 1853,
      "å®¶åºŃ": 1854,
      "ãĢĭ": 1855,
      "ency": 1856,
      "ĠCh": 1857,
      "ãĢĬ": 1858,
      "Ġproviding": 1859,
      "Ġresources": 1860,
      "âĢĻ": 1861,
      "Ġassist": 1862,
      "Ġnatural": 1863,
      "è¯Ħ": 1864,
      "ä¾¿": 1865,
      "Ġsaf": 1866,
      "åħ·æľī": 1867,
      "è°¢": 1868,
      "çĥŃ": 1869,
      "ss": 1870,
      "eth": 1871,
      "old": 1872,
      "Ġperform": 1873,
      "Ġseveral": 1874,
      "é¤Ĳ": 1875,
      "Ġeach": 1876,
      "è½¬": 1877,
      "ci": 1878,
      "Ġty": 1879,
      "Ġpub": 1880,
      "æ´»åĬ¨": 1881,
      "ocus": 1882,
      "çīĮ": 1883,
      "è¶Ĭ": 1884,
      "åĽ¢": 1885,
      "è½»": 1886,
      "è¯Ńè¨Ģ": 1887,
      "Ġareas": 1888,
      "éĩĩ": 1889,
      "ft": 1890,
      "riend": 1891,
      "å·²": 1892,
      "å¸Ĥåľº": 1893,
      "ition": 1894,
      "ients": 1895,
      "ç®¡çĲĨ": 1896,
      "è®¸": 1897,
      "äººç±»": 1898,
      "èº«ä½ĵ": 1899,
      "ique": 1900,
      "Ġpartic": 1901,
      "ç»Ń": 1902,
      "agement": 1903,
      "ves": 1904,
      "ç¬¦": 1905,
      "line": 1906,
      "çº¢": 1907,
      "åĲ¸": 1908,
      "Ġpatter": 1909,
      "000": 1910,
      "ç¤¾ä¼ļ": 1911,
      "åĨħå®¹": 1912,
      "Ġorganiz": 1913,
      "ough": 1914,
      "Ġve": 1915,
      "åŃ©åŃĲ": 1916,
      "æĸ½": 1917,
      "æ¤į": 1918,
      "åĩł": 1919,
      "ä½Ĩæĺ¯": 1920,
      "Ġaff": 1921,
      "Ġnum": 1922,
      "lement": 1923,
      "èīº": 1924,
      "èĳ": 1925,
      "Ġcar": 1926,
      "ages": 1927,
      "abor": 1928,
      "æĺ¯ä¸Ģç§į": 1929,
      "Ġinst": 1930,
      "èĽ": 1931,
      "ä¹ĭä¸Ģ": 1932,
      "è·¯": 1933,
      "åį³": 1934,
      "Ġmain": 1935,
      "éļı": 1936,
      "How": 1937,
      "å¿ħ": 1938,
      "ç¨ĭåºı": 1939,
      "éŁ³ä¹Ĳ": 1940,
      "red": 1941,
      "æ²¹": 1942,
      "Ġoffer": 1943,
      "ets": 1944,
      "ç¢": 1945,
      "Ġduring": 1946,
      "çļĦäºº": 1947,
      "æĽ´å¤ļ": 1948,
      "Ġdi": 1949,
      "ä»£çłģ": 1950,
      "èİ·": 1951,
      "åħĭ": 1952,
      "Ġguid": 1953,
      "ä¸»è¦ģ": 1954,
      "Ġfam": 1955,
      "æİ§": 1956,
      "éĢļå¸¸": 1957,
      "ĠAd": 1958,
      "å¤ĦçĲĨ": 1959,
      "urn": 1960,
      "ower": 1961,
      "åĳ½": 1962,
      "æıı": 1963,
      "Ġskills": 1964,
      "Ġtool": 1965,
      "ware": 1966,
      "æĸĩæľ¬": 1967,
      "Ġpatterns": 1968,
      "çĽ®æłĩ": 1969,
      "acy": 1970,
      "æīĵ": 1971,
      "åŁİå¸Ĥ": 1972,
      "Ġevery": 1973,
      "ries": 1974,
      "è¯»": 1975,
      "éģ¿": 1976,
      "çĻ½": 1977,
      "éĢĤåĲĪ": 1978,
      "Ġpatient": 1979,
      "çľŁ": 1980,
      "oth": 1981,
      "å¥¹": 1982,
      "åĶ®": 1983,
      "ä¸Ģç§į": 1984,
      "Ġmade": 1985,
      "ä½İ": 1986,
      "ise": 1987,
      "Ġrem": 1988,
      "æ¶Ī": 1989,
      "åĲ«": 1990,
      "air": 1991,
      "Ġgener": 1992,
      "oy": 1993,
      "ç²¾": 1994,
      "æĥħåĨµ": 1995,
      "ights": 1996,
      "Ġexpl": 1997,
      "è§ģ": 1998,
      "Ġpredict": 1999,
      "ç±³": 2000,
      "æĽ´å¥½": 2001,
      "ä¿®": 2002,
      "Ġclimate": 2003,
      "Ġfocus": 2004,
      "Ġgrow": 2005,
      "å®¢æĪ·": 2006,
      "ä¸įæĸŃ": 2007,
      "itor": 2008,
      "ĠEn": 2009,
      "çº¦": 2010,
      "æĺ¯åĲ¦": 2011,
      "ä»ħ": 2012,
      "æĪĳä»¬çļĦ": 2013,
      "æľĽ": 2014,
      "op": 2015,
      "Ġmaking": 2016,
      "yth": 2017,
      "ccess": 2018,
      "Ġown": 2019,
      "ggest": 2020,
      "Ġtas": 2021,
      "uture": 2022,
      "Ġmodel": 2023,
      "put": 2024,
      "Ġresearch": 2025,
      "erest": 2026,
      "éļ¾": 2027,
      "Ġ[": 2028,
      "iel": 2029,
      "ational": 2030,
      "Ġcommunic": 2031,
      "ç¥ŀ": 2032,
      "ç©¶": 2033,
      "Ġrest": 2034,
      "æĪĲä¸º": 2035,
      "king": 2036,
      "pr": 2037,
      "åĮ»": 2038,
      "cur": 2039,
      "èĤ²": 2040,
      "Ġ'": 2041,
      "è¿Ļç§į": 2042,
      "ç¯ĩ": 2043,
      "Ġche": 2044,
      "own": 2045,
      "éĻħ": 2046,
      "Ġfin": 2047,
      "åĪ¶ä½ľ": 2048,
      "Ġsuggest": 2049,
      "å¢ŀåĬł": 2050,
      "Ġmedia": 2051,
      "ribut": 2052,
      "çļĦæĥħ": 2053,
      "åĬłåħ¥": 2054,
      "Ġcle": 2055,
      "åĳ¨": 2056,
      "ç«ł": 2057,
      "Ġthink": 2058,
      "Ġlocal": 2059,
      "pportun": 2060,
      "ĠYou": 2061,
      "Ġplan": 2062,
      "Ġeven": 2063,
      "éĽĨ": 2064,
      "å·§": 2065,
      "ax": 2066,
      "Ġchallenges": 2067,
      "Ġprof": 2068,
      "ĠCan": 2069,
      "Ġconcer": 2070,
      "Ġfuture": 2071,
      "åĬ¿": 2072,
      "Ġref": 2073,
      "èģĶ": 2074,
      "Ġself": 2075,
      "æĪĸèĢħ": 2076,
      "ble": 2077,
      "åĽ´": 2078,
      "è¿ĲåĬ¨": 2079,
      "Ġinf": 2080,
      "éĩĬ": 2081,
      "Ġsustainable": 2082,
      "Ġtext": 2083,
      "Ġgra": 2084,
      "äºĮ": 2085,
      "åĵģçīĮ": 2086,
      "ä¸įåĲĮçļĦ": 2087,
      "led": 2088,
      "çĭ¬": 2089,
      "Ġopportun": 2090,
      "Ġcontin": 2091,
      "ym": 2092,
      "Ġget": 2093,
      "å¯Ĩ": 2094,
      "éĻ¤": 2095,
      "æħ": 2096,
      "éģ¿åħį": 2097,
      "Ġ+": 2098,
      "è§ī": 2099,
      "Ġret": 2100,
      "å¸ĥ": 2101,
      "Ġinterest": 2102,
      "Ġsociety": 2103,
      "ç»ĵæŀľ": 2104,
      "åĲ¬": 2105,
      "é¦ĸåħĪ": 2106,
      "Ġbre": 2107,
      "Ġ20": 2108,
      "ĠHowever": 2109,
      "è®°": 2110,
      "ons": 2111,
      "è¿ĳ": 2112,
      "å¼Ģå§ĭ": 2113,
      "Ġbuild": 2114,
      "Ġbeh": 2115,
      "'m": 2116,
      "vers": 2117,
      "Ġgood": 2118,
      "çĲĨè§£": 2119,
      "resent": 2120,
      "ç¦»": 2121,
      "åĬŁèĥ½": 2122,
      "Ġeffort": 2123,
      "labor": 2124,
      "é»ĳ": 2125,
      "Ġbetter": 2126,
      "Ġread": 2127,
      "å¾ĭ": 2128,
      "èĽĭ": 2129,
      "hed": 2130,
      "ä¹°": 2131,
      "å¯¼èĩ´": 2132,
      "Ġimplement": 2133,
      "ç¿": 2134,
      "äº«": 2135,
      "å¤´": 2136,
      "ense": 2137,
      "Ġlong": 2138,
      "other": 2139,
      "é¥®": 2140,
      "åŃĺåľ¨": 2141,
      "çļĦæĦ": 2142,
      "ä¸Ģä»½": 2143,
      "ython": 2144,
      "ning": 2145,
      "åĩıå°ĳ": 2146,
      "åĢĻ": 2147,
      "ä¸ĵ": 2148,
      "åĲĦç§į": 2149,
      "èħ": 2150,
      "å°½": 2151,
      "åįĩ": 2152,
      "æĬ¥": 2153,
      "Ġpublic": 2154,
      "Ġlar": 2155,
      "ä½łçļĦ": 2156,
      "aut": 2157,
      "é¢ĨåŁŁ": 2158,
      "æļ": 2159,
      "ollow": 2160,
      "èģĮ": 2161,
      "Ġchang": 2162,
      "Ġbest": 2163,
      "hip": 2164,
      "åĨį": 2165,
      "akes": 2166,
      "Ġchat": 2167,
      "ited": 2168,
      "Ġpower": 2169,
      "ä¿ĿæĬ¤": 2170,
      "ä¹¦": 2171,
      "è®¡åĪĴ": 2172,
      "éĩįè¦ģçļĦ": 2173,
      "åıĺåĮĸ": 2174,
      "ilities": 2175,
      "Ġconsider": 2176,
      "æĪĳä»¬åı¯ä»¥": 2177,
      "éĤ£ä¹Ī": 2178,
      "Ġide": 2179,
      "æ¼Ķ": 2180,
      "aging": 2181,
      "Ġbased": 2182,
      "å®Ŀ": 2183,
      "Ġrange": 2184,
      "Ġresult": 2185,
      "Ġmem": 2186,
      "çħ§": 2187,
      "Ġlevel": 2188,
      "cou": 2189,
      "Ġbr": 2190,
      "Th": 2191,
      "ä¼ģ": 2192,
      "å»ºç«ĭ": 2193,
      "Ġunique": 2194,
      "è®Ń": 2195,
      "Ġmark": 2196,
      "è®¸å¤ļ": 2197,
      "è¡Įä¸º": 2198,
      "Ķç©¶": 2199,
      "çļĦæĬ": 2200,
      "Ġset": 2201,
      "éª¤": 2202,
      "ts": 2203,
      "Ġhist": 2204,
      "Ġaround": 2205,
      "Ġrev": 2206,
      "åħ¶ä¸Ń": 2207,
      "ï¼ģ": 2208,
      "æııè¿°": 2209,
      "æľĢåĲİ": 2210,
      "Ġsim": 2211,
      "nect": 2212,
      "åĽŀçŃĶ": 2213,
      "éĺ²": 2214,
      "èī¯": 2215,
      "åĪ°äºĨ": 2216,
      "ä¸ĸçķ": 2217,
      "æĸ¹æ¡Ī": 2218,
      "æĿĲæĸĻ": 2219,
      "ä¸ĸçķĮ": 2220,
      "æĽ´å¥½åľ°": 2221,
      "ä¸¤ä¸ª": 2222,
      "Ġemploy": 2223,
      "Ġtry": 2224,
      "æĵ": 2225,
      "Ġback": 2226,
      "åĪĩ": 2227,
      "Ġsuccess": 2228,
      "Ġdecisions": 2229,
      "Ġthose": 2230,
      "å¯Į": 2231,
      "Ġfact": 2232,
      "æİ¢": 2233,
      "è¶£": 2234,
      "Ġpractices": 2235,
      "åĲĹ": 2236,
      "æīį": 2237,
      "çİ©": 2238,
      "ption": 2239,
      "æĸĩç«ł": 2240,
      "Ġfeat": 2241,
      "Ġprevent": 2242,
      "Ġwriting": 2243,
      "çļĦæĢ": 2244,
      "Ġno": 2245,
      "ä»ĭ": 2246,
      "éĹ¨": 2247,
      "Ġdel": 2248,
      "æĴ": 2249,
      "Ġoptim": 2250,
      "ination": 2251,
      "ĠĊ": 2252,
      "usion": 2253,
      "Ġaccount": 2254,
      "ling": 2255,
      "Ġdivers": 2256,
      ".\"": 2257,
      "ath": 2258,
      "èĭ±": 2259,
      "ä¼ģä¸ļ": 2260,
      "Ġgrou": 2261,
      "åľ°çĲĥ": 2262,
      "å¤±": 2263,
      "Ġpersonalized": 2264,
      "ĠHe": 2265,
      "è¡¨è¾¾": 2266,
      "curity": 2267,
      "Ġfollow": 2268,
      "äº§çĶŁ": 2269,
      "Ġear": 2270,
      "åİĭ": 2271,
      "vern": 2272,
      "Ġissues": 2273,
      "åĿĩ": 2274,
      "é²": 2275,
      "Ġdr": 2276,
      "iving": 2277,
      "Ġtraining": 2278,
      "Ġrisk": 2279,
      "åĩ½": 2280,
      "åı²": 2281,
      "æĳ": 2282,
      "çļĦæĹ¶": 2283,
      "ogn": 2284,
      "Ġrequire": 2285,
      "Ġenvironmental": 2286,
      "back": 2287,
      "éĶ®": 2288,
      "çĸĹ": 2289,
      "Ġinteract": 2290,
      "åĽ¢éĺŁ": 2291,
      "æ¯ıä¸ª": 2292,
      "çĦ¶åĲİ": 2293,
      "Ġdist": 2294,
      "çĶ¨äºİ": 2295,
      "è®¤ä¸º": 2296,
      "åĩ½æķ°": 2297,
      "Ġsent": 2298,
      "ĊĠĠĠĠĠĠĠĠ": 2299,
      "Ġreducing": 2300,
      "å¹²": 2301,
      "Ġrep": 2302,
      "Ġcaus": 2303,
      "Ġmusic": 2304,
      "çª": 2305,
      "Ġmonitor": 2306,
      "Ġform": 2307,
      "é¢ľ": 2308,
      "çĹħ": 2309,
      "é¦Ļ": 2310,
      "Ġoften": 2311,
      "åı¯èĥ½ä¼ļ": 2312,
      "åĳĺå·¥": 2313,
      "Ġhand": 2314,
      "æĬķ": 2315,
      "Ġneeds": 2316,
      "æŃ¤å¤ĸ": 2317,
      "åıĭ": 2318,
      "ivity": 2319,
      "Ġactivities": 2320,
      "åĸľæ¬¢": 2321,
      "Ġpur": 2322,
      "ian": 2323,
      "self": 2324,
      "åĬ¨çī©": 2325,
      "comes": 2326,
      "å©": 2327,
      "Ġpriv": 2328,
      "az": 2329,
      "Ġrelations": 2330,
      "Ġmachine": 2331,
      "çļĦæ°": 2332,
      "ä»·æł¼": 2333,
      "ä»·åĢ¼": 2334,
      "ç´¢": 2335,
      "Ġfeed": 2336,
      "ä¸Ģä¸ĭ": 2337,
      "Ġteam": 2338,
      "Ġindustry": 2339,
      "è´¢": 2340,
      "ĠPro": 2341,
      "Ġwant": 2342,
      "ç§°": 2343,
      "Ġclass": 2344,
      "Ġlove": 2345,
      "åħ³äºİ": 2346,
      "è¾ĵåħ¥": 2347,
      "Ġtransport": 2348,
      "Ġcomplex": 2349,
      "Ġyear": 2350,
      "éĶĢåĶ®": 2351,
      "å¯»": 2352,
      "ience": 2353,
      "ists": 2354,
      "æĶ¯æĮģ": 2355,
      "Ġmind": 2356,
      "Ġfun": 2357,
      "Ġchar": 2358,
      "æĮī": 2359,
      "Ġconcerns": 2360,
      "conom": 2361,
      "ç®Ģåįķ": 2362,
      "ä»¥ä¸ĭæĺ¯": 2363,
      "Ġstart": 2364,
      "å¹¶ä¸Ķ": 2365,
      "avi": 2366,
      "ä¸ŃåĽ½": 2367,
      "åħĥç´ł": 2368,
      "Ġconf": 2369,
      "Ġpositive": 2370,
      "Ġcur": 2371,
      "Ġcount": 2372,
      "ery": 2373,
      "å¡": 2374,
      "å®¤": 2375,
      "Ġcost": 2376,
      "Ġequ": 2377,
      "Ġpolic": 2378,
      "aste": 2379,
      "aw": 2380,
      "éħĴ": 2381,
      "coura": 2382,
      "iven": 2383,
      "place": 2384,
      "chie": 2385,
      "çļĦæķ°": 2386,
      "åĽłç´ł": 2387,
      "Ġfl": 2388,
      "ism": 2389,
      "Ġmedical": 2390,
      "Ġhumans": 2391,
      "Ġautom": 2392,
      "ertainly": 2393,
      "Ġ0": 2394,
      "Ġoffers": 2395,
      "Ġdetect": 2396,
      "Ġ6": 2397,
      "é£İæł¼": 2398,
      "Ġshow": 2399,
      "çģ«": 2400,
      "Ġanim": 2401,
      "é¢ľèī²": 2402,
      "lease": 2403,
      "ave": 2404,
      "åĵª": 2405,
      "ĠThere": 2406,
      "ä»¥ä¸Ĭ": 2407,
      "æľªæĿ¥": 2408,
      "XX": 2409,
      "çīĩ": 2410,
      "uch": 2411,
      "Ġtasks": 2412,
      "åħ·ä½ĵ": 2413,
      "æ¤įçī©": 2414,
      "Ġmin": 2415,
      "èīºæľ¯": 2416,
      "icult": 2417,
      "Ġexperiences": 2418,
      "æİ§åĪ¶": 2419,
      "be": 2420,
      "Ġpatients": 2421,
      "å²": 2422,
      "ĠWe": 2423,
      "Ġrecogn": 2424,
      "çĥ¤": 2425,
      "Ġsmall": 2426,
      "åĿĹ": 2427,
      "åĦ": 2428,
      "å¤ªéĺ³": 2429,
      "ction": 2430,
      "Ġent": 2431,
      "æį¢": 2432,
      "Ġbefore": 2433,
      "Ġbecome": 2434,
      "å·²ç»ı": 2435,
      "è¡¨çİ°": 2436,
      "Ġexplo": 2437,
      "Ġachie": 2438,
      "ä»»åĬ¡": 2439,
      "å¤§çļĦ": 2440,
      "Ġday": 2441,
      "Ġfound": 2442,
      "å±±": 2443,
      "ond": 2444,
      "Ġtreatment": 2445,
      "pend": 2446,
      "hen": 2447,
      "Ġcondit": 2448,
      "ç¡®å®ļ": 2449,
      "Ġbusinesses": 2450,
      "ĠWh": 2451,
      "æīĢæľī": 2452,
      "Ġdeveloped": 2453,
      "ç»Ī": 2454,
      "æŃ¥éª¤": 2455,
      "Ġdifficult": 2456,
      "åı·": 2457,
      "ĠRe": 2458,
      "éĶĻ": 2459,
      "Ġcho": 2460,
      "Ġquest": 2461,
      "Ġtranspare": 2462,
      "Ġproject": 2463,
      "Ġcommunity": 2464,
      "ov": 2465,
      "å¸Ī": 2466,
      "å¼ł": 2467,
      "åĪĨç±»": 2468,
      "äººçļĦ": 2469,
      "sis": 2470,
      "çĽĬ": 2471,
      "oid": 2472,
      "ĠAn": 2473,
      "ways": 2474,
      "Ġeas": 2475,
      "Ġaffect": 2476,
      "Ġothers": 2477,
      "Ġregul": 2478,
      "æĢ§åĴĮ": 2479,
      "åĸĦ": 2480,
      "agn": 2481,
      "ä½ľä¸º": 2482,
      "åı¯ä»¥å¸®åĬ©": 2483,
      "åĦ¿": 2484,
      "Ġorganizations": 2485,
      "é¸¡": 2486,
      "åħ´": 2487,
      "Ġfriend": 2488,
      "Ġ$": 2489,
      "Ġdetail": 2490,
      "Ġtraditional": 2491,
      "Ġdesigned": 2492,
      "è´Ńä¹°": 2493,
      "ä½ĵéªĮ": 2494,
      "ç»į": 2495,
      "erm": 2496,
      "Ġconnect": 2497,
      "è¿Ļæł·": 2498,
      "Ġrecommendations": 2499,
      "Ġboth": 2500,
      "ŁéĢļ": 2501,
      "æ¯į": 2502,
      "Ġsit": 2503,
      "ä½ľçĶ¨": 2504,
      "ä»ĭç»į": 2505,
      "Ġste": 2506,
      "ĠSure": 2507,
      "åı°": 2508,
      "æĤ¨çļĦ": 2509,
      "Ġshe": 2510,
      "Ġmanagement": 2511,
      "joy": 2512,
      "è´Ł": 2513,
      "Ġpromote": 2514,
      "Ġvarious": 2515,
      "(\"": 2516,
      "por": 2517,
      "Ġsens": 2518,
      "Ġessential": 2519,
      "gether": 2520,
      "ularly": 2521,
      "äºī": 2522,
      "irst": 2523,
      "Ġop": 2524,
      "Ġspecies": 2525,
      "çİ°åľ¨": 2526,
      "cho": 2527,
      "Ġbehavi": 2528,
      "çŃĳ": 2529,
      "å¥³": 2530,
      "Ġquality": 2531,
      "Ġext": 2532,
      "è¥": 2533,
      "å®ĮæĪĲ": 2534,
      "æĢ»ä¹ĭ": 2535,
      "éĥ¨åĪĨ": 2536,
      "ä»İèĢĮ": 2537,
      "åĽ¾": 2538,
      "Ġtyp": 2539,
      "Ġstrate": 2540,
      "è¥¿": 2541,
      "Ġhere": 2542,
      "ars": 2543,
      "å¸Į": 2544,
      "çļĦæĿ": 2545,
      "å°Ŀ": 2546,
      "ee": 2547,
      "ier": 2548,
      "Ġec": 2549,
      "ically": 2550,
      "ering": 2551,
      "å¿µ": 2552,
      "ĠDe": 2553,
      "Ġneg": 2554,
      "å»ºçŃĳ": 2555,
      "Ġservices": 2556,
      "Ġable": 2557,
      "imes": 2558,
      "Ġoptions": 2559,
      "çĽ¸åħ³": 2560,
      "Ġsub": 2561,
      "Ġdecision": 2562,
      "ĠCertainly": 2563,
      "Ġåľ¨": 2564,
      "æ¢": 2565,
      "Ġservice": 2566,
      "):": 2567,
      "å¸¦æĿ¥": 2568,
      "Ġchild": 2569,
      "è§£éĩĬ": 2570,
      "irt": 2571,
      "çĨ": 2572,
      "ä¸įä»ħ": 2573,
      "æĿ¾": 2574,
      "ç§¯æŀģ": 2575,
      "ron": 2576,
      "åı¤": 2577,
      "çłĶç©¶": 2578,
      "ç²ī": 2579,
      "hor": 2580,
      "Ġprofess": 2581,
      "çļĦéĹ®é¢ĺ": 2582,
      "Ġopportunities": 2583,
      "åİĨåı²": 2584,
      "Ġdef": 2585,
      "ĠAm": 2586,
      "Ġgr": 2587,
      "aur": 2588,
      "å±Ĥ": 2589,
      "çŃĸ": 2590,
      "Ġpopular": 2591,
      "æ´ģ": 2592,
      "åıĳçİ°": 2593,
      "Ġpoem": 2594,
      "èµĽ": 2595,
      "Ġob": 2596,
      "Ġdon": 2597,
      "Ġsound": 2598,
      "Ġtransportation": 2599,
      "ious": 2600,
      "åı¦": 2601,
      "Ġrole": 2602,
      "Ġfiel": 2603,
      "ç§ĳåŃ¦": 2604,
      "èĢģ": 2605,
      "reen": 2606,
      "æľīæķĪ": 2607,
      "Ġcor": 2608,
      "Ġfeedback": 2609,
      "Ġtechnologies": 2610,
      "äº¤éĢļ": 2611,
      "Ġadapt": 2612,
      "'re": 2613,
      "ervation": 2614,
      "Ġcommunities": 2615,
      "çİ°ä»£": 2616,
      "Ġlook": 2617,
      "Ġfac": 2618,
      "çĶµå½±": 2619,
      "Ġcollect": 2620,
      "å¾ĹåĪ°": 2621,
      "hips": 2622,
      "Ġavail": 2623,
      "eren": 2624,
      "ä¸Ģèµ·": 2625,
      "çīĽ": 2626,
      "Ġposs": 2627,
      "Ġweather": 2628,
      "Ġefforts": 2629,
      "¿Ģ": 2630,
      "æĹħ": 2631,
      "oh": 2632,
      "Ġcollabor": 2633,
      "æĭ¥": 2634,
      "æĪĲåĬŁ": 2635,
      "èİ·å¾Ĺ": 2636,
      "å±ħ": 2637,
      "Ġtre": 2638,
      "Ġsources": 2639,
      "Ġstudy": 2640,
      "Ġprograms": 2641,
      "éĻĲ": 2642,
      "Ġtips": 2643,
      "Ġmarket": 2644,
      "ally": 2645,
      "å®³": 2646,
      "wards": 2647,
      "æ£Ģ": 2648,
      "ä¸Ģç¯ĩ": 2649,
      "rior": 2650,
      "Ġtop": 2651,
      "Ġend": 2652,
      "åĭ": 2653,
      "Ġlarge": 2654,
      "iciency": 2655,
      "Ġdec": 2656,
      "å®ļçļĦ": 2657,
      "icient": 2658,
      "è¿ĩç¨ĭä¸Ń": 2659,
      "lications": 2660,
      "ç¼º": 2661,
      "Ġtour": 2662,
      "Ġtogether": 2663,
      "äººå·¥": 2664,
      "Ġtools": 2665,
      "æĸ¯": 2666,
      "æ°ĳ": 2667,
      "æĬĬ": 2668,
      "ä¹ĭéĹ´çļĦ": 2669,
      "çī¹çĤ¹": 2670,
      "Ġbel": 2671,
      "ditionally": 2672,
      "åĪ©çĶ¨": 2673,
      "è¾¹": 2674,
      "éĻį": 2675,
      "ĠIf": 2676,
      "é¢Ŀ": 2677,
      "åįı": 2678,
      "å¾Ģ": 2679,
      "lish": 2680,
      "è¯ī": 2681,
      "ins": 2682,
      "å¥¶": 2683,
      "Ġeconom": 2684,
      "Ġinvest": 2685,
      "ĠDo": 2686,
      "tain": 2687,
      "åĩºçİ°": 2688,
      "çļĦå½±åĵį": 2689,
      "aterial": 2690,
      "Ġsure": 2691,
      "Ġpass": 2692,
      "çĶ»": 2693,
      "è´£": 2694,
      "ç»ĵæŀĦ": 2695,
      "æķħ": 2696,
      "æĥħæĦŁ": 2697,
      "æ¿Ģ": 2698,
      "ellig": 2699,
      "ä¼Ĺ": 2700,
      "æ¯Ķè¾ĥ": 2701,
      "tern": 2702,
      "Ġoutcomes": 2703,
      "up": 2704,
      "Ġbeaut": 2705,
      "read": 2706,
      "çĶŁæĪĲ": 2707,
      "æķ°åŃĹ": 2708,
      "Ġdem": 2709,
      "ires": 2710,
      "åı¯ä»¥éĢļè¿ĩ": 2711,
      "æĸ°çļĦ": 2712,
      "Ġdeep": 2713,
      "å¨": 2714,
      "çĭĹ": 2715,
      "åħ³æ³¨": 2716,
      "çĶŁåĳ½": 2717,
      "ä¼łç»Ł": 2718,
      "Ġstay": 2719,
      "æŃĮ": 2720,
      "åħ³éĶ®": 2721,
      "Ġplace": 2722,
      "ä¸»é¢ĺ": 2723,
      "å¾Īå¤ļ": 2724,
      "èĪĴ": 2725,
      "Ġprofessional": 2726,
      "yle": 2727,
      "æĽ²": 2728,
      "19": 2729,
      "Ġessay": 2730,
      "Ġgive": 2731,
      "ç³ĸ": 2732,
      "Ġonly": 2733,
      "æŁĲ": 2734,
      "Ġphys": 2735,
      "å¯¹è¯Ŀ": 2736,
      "Ġcontro": 2737,
      "Ġamount": 2738,
      "cept": 2739,
      "ization": 2740,
      "ç¼ĸåĨĻ": 2741,
      "åıĹåĪ°": 2742,
      "Ġalways": 2743,
      "æ¯Ķå¦Ĥ": 2744,
      "Ġprivacy": 2745,
      "au": 2746,
      "________": 2747,
      "Ġresponsible": 2748,
      "()": 2749,
      "çŃīçŃī": 2750,
      "Ġmaterial": 2751,
      "Ġonline": 2752,
      "é¼": 2753,
      "æĶ¿": 2754,
      "åĽĽ": 2755,
      "Ġenjoy": 2756,
      "åľŁ": 2757,
      "Ġsafety": 2758,
      "Ġtw": 2759,
      "Ġcommunication": 2760,
      "ä¸½": 2761,
      "æĺ¾": 2762,
      "olution": 2763,
      "erg": 2764,
      "įä½ľ": 2765,
      "Ġuser": 2766,
      "Ġemotional": 2767,
      "time": 2768,
      "é¾": 2769,
      "Ġsecurity": 2770,
      "Ġsense": 2771,
      "elines": 2772,
      "åĬ±": 2773,
      "çī©è´¨": 2774,
      "ura": 2775,
      "Ġshare": 2776,
      "Ġanalyzing": 2777,
      "ital": 2778,
      "é±": 2779,
      "irtual": 2780,
      "Ġvisit": 2781,
      "bers": 2782,
      "Ġcour": 2783,
      "Ġproble": 2784,
      "è®¾å¤ĩ": 2785,
      "atch": 2786,
      "land": 2787,
      "é±¼": 2788,
      "æĪĳä»¬éľĢè¦ģ": 2789,
      "ç¨³": 2790,
      "ibility": 2791,
      "Ġefficiency": 2792,
      "å£°": 2793,
      "èĴ": 2794,
      "æľºåĻ¨": 2795,
      "Ġclear": 2796,
      "åĪ¶å®ļ": 2797,
      "izing": 2798,
      "Ġconditions": 2799,
      "lusion": 2800,
      "Ġlow": 2801,
      "Ġlim": 2802,
      "hers": 2803,
      "Ġrisks": 2804,
      "ç¿»": 2805,
      "Ġlet": 2806,
      "åĴĸ": 2807,
      "å¿ĥçĲĨ": 2808,
      "è¿ľ": 2809,
      "print": 2810,
      "Ġchanges": 2811,
      "Ġmeas": 2812,
      "Ġimproving": 2813,
      "Ġcrit": 2814,
      "50": 2815,
      "å¸ĮæľĽ": 2816,
      "Ġaud": 2817,
      "åįĹ": 2818,
      "æĹłæ³ķ": 2819,
      "Ġnegative": 2820,
      "é¡¹çĽ®": 2821,
      "und": 2822,
      "ats": 2823,
      "Ġcompanies": 2824,
      "æī¾åĪ°": 2825,
      "Ġcontribut": 2826,
      "æŃ£ç¡®": 2827,
      "é»Ħ": 2828,
      "å±ŀ": 2829,
      "Ġunderstanding": 2830,
      "Ġmult": 2831,
      "Ġclo": 2832,
      "å¾ģ": 2833,
      "Ġprior": 2834,
      "rim": 2835,
      "äººå·¥æĻºèĥ½": 2836,
      "Ġvariety": 2837,
      "Ġtaking": 2838,
      "åĤ": 2839,
      "aster": 2840,
      "ody": 2841,
      "Ġ{": 2842,
      "çļĦéĩįè¦ģ": 2843,
      "Ġfore": 2844,
      "èµĦæºĲ": 2845,
      "è¦ģæ±Ĥ": 2846,
      "Ġfeatures": 2847,
      "èįī": 2848,
      "me": 2849,
      "èĮĥ": 2850,
      "Ġoper": 2851,
      "çº§": 2852,
      "é²ľ": 2853,
      "æĬĢå·§": 2854,
      "ĳæĪĺ": 2855,
      "ç±»åŀĭ": 2856,
      "æĿ¿": 2857,
      "è½¯": 2858,
      "ew": 2859,
      "Ġrestaur": 2860,
      "Ġwithout": 2861,
      "ructure": 2862,
      "çļĦæĺ¯": 2863,
      "çı": 2864,
      "Ġlist": 2865,
      "urate": 2866,
      "Ġbook": 2867,
      "äº²": 2868,
      "åºĹ": 2869,
      "ä¹Łæĺ¯": 2870,
      "ä»»ä½ķ": 2871,
      "Ġcam": 2872,
      "ĠBe": 2873,
      "Ġgovern": 2874,
      "Ġbehavior": 2875,
      "è®Ńç»ĥ": 2876,
      "Ġfamily": 2877,
      "æĿĤ": 2878,
      "Ġcity": 2879,
      "Ġapproach": 2880,
      "Ġaccurate": 2881,
      "Ġsom": 2882,
      "Ġel": 2883,
      "èĪŀ": 2884,
      "èŀ": 2885,
      "åŁºæľ¬": 2886,
      "Ġdise": 2887,
      "Ġencoura": 2888,
      "ĠWhat": 2889,
      "åĥ": 2890,
      "è¯¦": 2891,
      "¦Ĥ": 2892,
      "å·¥åħ·": 2893,
      "åķ¡": 2894,
      "Ġstill": 2895,
      "chool": 2896,
      "æĦŁåĪ°": 2897,
      "çĶŁçī©": 2898,
      "åĴĸåķ¡": 2899,
      "åĩĨå¤ĩ": 2900,
      "Ġwaste": 2901,
      "Ġevents": 2902,
      "æķĻèĤ²": 2903,
      "Ġ8": 2904,
      "Ġmust": 2905,
      "ied": 2906,
      "asing": 2907,
      "å½¢æĪĲ": 2908,
      "Ġproducts": 2909,
      "åħ¸": 2910,
      "è®²": 2911,
      "fter": 2912,
      "å·®": 2913,
      "less": 2914,
      "Ġcro": 2915,
      "Ġfinan": 2916,
      "åıįåºĶ": 2917,
      "åĪĽéĢł": 2918,
      "Ġguidelines": 2919,
      "åĪ¤": 2920,
      "ä½ľåĵģ": 2921,
      "è¡¨ç¤º": 2922,
      "å¼Ĥ": 2923,
      "Ġknown": 2924,
      "Ġtest": 2925,
      "è¯¯": 2926,
      "ope": 2927,
      "Ġusers": 2928,
      "AI": 2929,
      "å¾·": 2930,
      "new": 2931,
      "è¿½": 2932,
      "iques": 2933,
      "æ¨¡åŀĭ": 2934,
      "åĬĽåĴĮ": 2935,
      "Ġhistory": 2936,
      "ĠAl": 2937,
      "æĬķèµĦ": 2938,
      "å°Ŀè¯ķ": 2939,
      "ank": 2940,
      "Ġhome": 2941,
      "éĴŁ": 2942,
      "ä¸°": 2943,
      "èĪĴéĢĤ": 2944,
      "Ġincrease": 2945,
      "Ġhab": 2946,
      "åĪ»": 2947,
      "è¾ĵåĩº": 2948,
      "Ġleading": 2949,
      "Ġ7": 2950,
      "é£İéĻ©": 2951,
      "Ġperformance": 2952,
      "Ġhapp": 2953,
      "åŃ£": 2954,
      "Ġstand": 2955,
      "ty": 2956,
      "ç¦ı": 2957,
      "Ġcustomers": 2958,
      "åįİ": 2959,
      "Ġbelie": 2960,
      "Ġcompany": 2961,
      "å½ķ": 2962,
      "é£Łçī©": 2963,
      "ĠUn": 2964,
      "Ġsumm": 2965,
      "rent": 2966,
      "ĠCon": 2967,
      "éĢĤéĩı": 2968,
      "anced": 2969,
      "Ġi": 2970,
      "Ġlight": 2971,
      "Ġanalysis": 2972,
      "å°Ĭ": 2973,
      "ĠUse": 2974,
      "ouse": 2975,
      "ted": 2976,
      "Ġcharact": 2977,
      "Ġ#": 2978,
      "to": 2979,
      "ç»ľ": 2980,
      "ä¸įæĺ¯": 2981,
      "Ġdeveloping": 2982,
      "åŁ¹": 2983,
      "Ġstrategies": 2984,
      "Ġmight": 2985,
      "çŁŃ": 2986,
      "çļĦæİ": 2987,
      "Ġfirst": 2988,
      "èĥĮ": 2989,
      "çĮ«": 2990,
      "Ġincludes": 2991,
      "åĽŃ": 2992,
      "Ġdiagn": 2993,
      "Ġgrowth": 2994,
      "ä¸ĵä¸ļ": 2995,
      "Ġdoes": 2996,
      "12": 2997,
      "ç»¿": 2998,
      "Ġkeep": 2999,
      "è¯¦ç»Ĩ": 3000,
      "åĥı": 3001,
      "åıĳçĶŁ": 3002,
      "fact": 3003,
      "åı¯ä»¥åľ¨": 3004,
      "ç«Ļ": 3005,
      "æĭī": 3006,
      "æµİ": 3007,
      "Ġchatbots": 3008,
      "Ġbreak": 3009,
      "è¡¡": 3010,
      "çŁ³": 3011,
      "æĮģç»Ń": 3012,
      "life": 3013,
      "Ġ10": 3014,
      "æ´Ĺ": 3015,
      "ĠAdditionally": 3016,
      "å£«": 3017,
      "ember": 3018,
      "Ġgoals": 3019,
      "å¾®": 3020,
      "Ġview": 3021,
      "Â·": 3022,
      "ove": 3023,
      "åŁºç¡": 3024,
      "Ġoptimize": 3025,
      "Ġtem": 3026,
      "Ġdown": 3027,
      "åŁºç¡Ģ": 3028,
      "è¶ħ": 3029,
      "ercis": 3030,
      "Ġless": 3031,
      "ees": 3032,
      "æĿĥ": 3033,
      "Ġkey": 3034,
      "Ġworks": 3035,
      "è®¨": 3036,
      "åı¥åŃĲ": 3037,
      "Ġrobot": 3038,
      "uss": 3039,
      "åħ¨çĲĥ": 3040,
      "ç»ıæµİ": 3041,
      "æīįèĥ½": 3042,
      "egr": 3043,
      "ä»ĸä»¬çļĦ": 3044,
      "äºĶ": 3045,
      "èµ·æĿ¥": 3046,
      "çĵ": 3047,
      "Ġfactors": 3048,
      "Ġcultural": 3049,
      "æľ¨": 3050,
      "Ġworking": 3051,
      "ä¼¼": 3052,
      "èĲ½": 3053,
      "éĢŁåº¦": 3054,
      "ä½ı": 3055,
      "Ġeffects": 3056,
      "å©ļ": 3057,
      "br": 3058,
      "åİħ": 3059,
      "rain": 3060,
      "\")": 3061,
      "åŃ¦çĶŁ": 3062,
      "\",": 3063,
      "Ġpar": 3064,
      "atform": 3065,
      "Ġensuring": 3066,
      "çĶ±äºİ": 3067,
      "Ġmuch": 3068,
      "Ġwords": 3069,
      "Ġmar": 3070,
      "ç»ıéªĮ": 3071,
      "ä¸ºäºĨ": 3072,
      "åĲĪä½ľ": 3073,
      "ven": 3074,
      "Ġ/": 3075,
      "Ġfinancial": 3076,
      "work": 3077,
      "ories": 3078,
      "æ²»": 3079,
      "Ġtechniques": 3080,
      "æĭ¥æľī": 3081,
      "rap": 3082,
      "å°Ķ": 3083,
      "Ġest": 3084,
      "Ġavailable": 3085,
      "Ġlit": 3086,
      "æ¹": 3087,
      "Ġefficient": 3088,
      "els": 3089,
      "over": 3090,
      "Ġland": 3091,
      "Ġarea": 3092,
      "Ġintellig": 3093,
      "Ġpref": 3094,
      "ature": 3095,
      "çŁ¥è¯Ĩ": 3096,
      "æĵįä½ľ": 3097,
      "å¾ħ": 3098,
      "igate": 3099,
      "çļĦæĶ": 3100,
      "Ġmean": 3101,
      "bo": 3102,
      "Ġcontrol": 3103,
      "éĩĩçĶ¨": 3104,
      "ricult": 3105,
      "Ġprogramm": 3106,
      "Ġtowards": 3107,
      "thing": 3108,
      "ä¸įè¦ģ": 3109,
      "Ġthough": 3110,
      "å½©": 3111,
      "Ġcertain": 3112,
      "Ġwild": 3113,
      "ä»Ĭ": 3114,
      "Ġconservation": 3115,
      "çŁ¥éģĵ": 3116,
      "Ġreally": 3117,
      "çļĦåľ°": 3118,
      "io": 3119,
      "é¥°": 3120,
      "Ġful": 3121,
      "çİ¯ä¿Ŀ": 3122,
      "Ġexplore": 3123,
      "çļĦæ¸": 3124,
      "Ġdiverse": 3125,
      "åĬłå¼º": 3126,
      "çļ®": 3127,
      "Ġemotions": 3128,
      "Ġavoid": 3129,
      "'ll": 3130,
      "çļĦæī": 3131,
      "åį¡": 3132,
      "Ġplatform": 3133,
      "ances": 3134,
      "Ġsitu": 3135,
      "ä»ĺ": 3136,
      "ä½įç½®": 3137,
      "oring": 3138,
      "çĽĲ": 3139,
      "ä¸ĩ": 3140,
      "Ġdev": 3141,
      "nov": 3142,
      "ash": 3143,
      "Ġtwo": 3144,
      "å®ł": 3145,
      "bon": 3146,
      "èµ°": 3147,
      "åĪĹè¡¨": 3148,
      "Ġcy": 3149,
      "èįĲ": 3150,
      "ĠSome": 3151,
      "Ġexplain": 3152,
      "Ġaware": 3153,
      "ç¤¾äº¤": 3154,
      "day": 3155,
      "åıĮ": 3156,
      "æ²ŁéĢļ": 3157,
      "æ°§": 3158,
      "å¼Ģåıĳ": 3159,
      "åħ¬åı¸çļĦ": 3160,
      "Ġair": 3161,
      "åĩ»": 3162,
      "aring": 3163,
      "éĥ½æĺ¯": 3164,
      "Ġlevels": 3165,
      "ods": 3166,
      "Ġsteps": 3167,
      "Ġcap": 3168,
      "æ´ŀ": 3169,
      "é©¬": 3170,
      "Ġreturn": 3171,
      "Ġmet": 3172,
      "çĶŁæĢģ": 3173,
      "ä¸°å¯Į": 3174,
      "æŁĵ": 3175,
      "æīĢä»¥": 3176,
      "é¡»": 3177,
      "Ġer": 3178,
      "Ġfra": 3179,
      "30": 3180,
      "èĵ": 3181,
      "âĢĶ": 3182,
      "Ġå½ĵ": 3183,
      "ah": 3184,
      "ä¿ĥ": 3185,
      "Ġlikely": 3186,
      "ĠĠĠĠĠĠĠĠĠĠĠĠĠĠĠĠ": 3187,
      "åĪĿ": 3188,
      "Ġcreating": 3189,
      "Ġfarm": 3190,
      "Ġbal": 3191,
      "Ġlives": 3192,
      "å®ĥçļĦ": 3193,
      "Ġability": 3194,
      "ä¸ĬçļĦ": 3195,
      "Ġsentence": 3196,
      "åĤ¨": 3197,
      "Ġrout": 3198,
      "Ġprovides": 3199,
      "Ġagain": 3200,
      "å®łçī©": 3201,
      "éĢĲ": 3202,
      "Ġyears": 3203,
      "èŀį": 3204,
      "Ġphysical": 3205,
      "Python": 3206,
      "ĠEx": 3207,
      "iting": 3208,
      "è°ĥæķ´": 3209,
      "ç½ĳç»ľ": 3210,
      "æħ¢": 3211,
      "ç©ºéĹ´": 3212,
      "åĽ°": 3213,
      "è±Ĩ": 3214,
      "æĽ´å¤ļçļĦ": 3215,
      "ĠAr": 3216,
      "Ġmaintain": 3217,
      "å®ŀéĻħ": 3218,
      "Ġtravel": 3219,
      "Ġsat": 3220,
      "pro": 3221,
      "çĶµåŃĲ": 3222,
      "æ±½": 3223,
      "ex": 3224,
      "åģĩ": 3225,
      "æĲŃ": 3226,
      "éļıçĿĢ": 3227,
      "è¿ĺæľī": 3228,
      "ç¤¼": 3229,
      "ale": 3230,
      "Ġconsum": 3231,
      "ĊĠ": 3232,
      "ncy": 3233,
      "Ġquestions": 3234,
      "fort": 3235,
      "making": 3236,
      "Ġdesc": 3237,
      "15": 3238,
      "Ġinvolves": 3239,
      "Ġstress": 3240,
      "åŃĹç¬¦": 3241,
      "here": 3242,
      "Ġimpacts": 3243,
      "Ġexercis": 3244,
      "åĿļ": 3245,
      "ledge": 3246,
      "ç§ĳæĬĢ": 3247,
      "oci": 3248,
      "Ġeffectively": 3249,
      "æ¶Īè´¹": 3250,
      "Ġconclusion": 3251,
      "éĺħ": 3252,
      "Ġstre": 3253,
      "issions": 3254,
      "æ·»": 3255,
      "It": 3256,
      "éĿĻ": 3257,
      "Ġvirtual": 3258,
      "è¡£": 3259,
      "Ġachieve": 3260,
      "ource": 3261,
      "è¿ŀ": 3262,
      "acks": 3263,
      "è¡¨æł¼": 3264,
      "Ġimportance": 3265,
      "èĩªæĪĳ": 3266,
      "These": 3267,
      "num": 3268,
      "çļĦæł": 3269,
      "Ġrelationships": 3270,
      "Ġworkers": 3271,
      "gical": 3272,
      "orpor": 3273,
      "erson": 3274,
      "åĳ¢": 3275,
      "nds": 3276,
      "æİ¨èįĲ": 3277,
      "ohn": 3278,
      "å¿ħé¡»": 3279,
      "å®¹æĺĵ": 3280,
      "ĠGo": 3281,
      "Ġtell": 3282,
      "ĠRes": 3283,
      "onom": 3284,
      "Ġbec": 3285,
      "æ³Ľ": 3286,
      "pos": 3287,
      "Ġmove": 3288,
      "Ġstory": 3289,
      "æŃ¢": 3290,
      "Ġpriorit": 3291,
      "Ġindustries": 3292,
      "èľ": 3293,
      "Ġpossible": 3294,
      "ĠMan": 3295,
      "Ġexpress": 3296,
      "abilities": 3297,
      "Ġintegr": 3298,
      "ä»£è¡¨": 3299,
      "Ġrespond": 3300,
      "åĪĨéĴŁ": 3301,
      "æľºä¼ļ": 3302,
      "Ġthings": 3303,
      "äº¤æµģ": 3304,
      "Ġmeth": 3305,
      "urther": 3306,
      "Ġwide": 3307,
      "èĳĹ": 3308,
      "æĪĳçļĦ": 3309,
      "ĸçķ¥": 3310,
      "ides": 3311,
      "ething": 3312,
      "ĠWhile": 3313,
      "pan": 3314,
      "çŃĸçķ¥": 3315,
      "Ġcent": 3316,
      "Ġplease": 3317,
      "ology": 3318,
      "uracy": 3319,
      "å¾ª": 3320,
      "ward": 3321,
      "nce": 3322,
      "Ġthen": 3323,
      "çªģ": 3324,
      "å¥ĩ": 3325,
      "Ġblo": 3326,
      "ai": 3327,
      "æŀĹ": 3328,
      "ç®Ĺæ³ķ": 3329,
      "ç»¼": 3330,
      "Ġprint": 3331,
      "aces": 3332,
      "lu": 3333,
      "ªæĸ½": 3334,
      "pre": 3335,
      "çļĦæĦı": 3336,
      "Ġsol": 3337,
      "Ġoverall": 3338,
      "hold": 3339,
      "Ġes": 3340,
      "çļĦä¸Ģ": 3341,
      "éģĩ": 3342,
      "Ġpopul": 3343,
      "å°ıè¯´": 3344,
      "æ³¢": 3345,
      "åįģ": 3346,
      "ä¹Łåı¯ä»¥": 3347,
      "é£Łåĵģ": 3348,
      "Ġcontent": 3349,
      "å°Ħ": 3350,
      "Ġrequires": 3351,
      "æ£ĢæŁ¥": 3352,
      "ĊĠĠĠĠĠĠĠĠĠĠĠ": 3353,
      "Ġgroups": 3354,
      "Ġfair": 3355,
      "Ġbl": 3356,
      "å®ŀéªĮ": 3357,
      "æĮīçħ§": 3358,
      "osp": 3359,
      "str": 3360,
      "ä¸įèĥ½": 3361,
      "Ġharm": 3362,
      "Ġprodu": 3363,
      "çļĦæĬĢ": 3364,
      "çĩ": 3365,
      "tle": 3366,
      "Ġanimals": 3367,
      "è§Ĵèī²": 3368,
      "lev": 3369,
      "æ¸Ĳ": 3370,
      "å¤įæĿĤ": 3371,
      "Ġdepend": 3372,
      "æĮĳæĪĺ": 3373,
      "åĮħåĲ«": 3374,
      "Ġhelps": 3375,
      "Ġopen": 3376,
      "Ġnet": 3377,
      "ĠĠĠĠĠ": 3378,
      "Ġstrong": 3379,
      "Ġjour": 3380,
      "å¹¿æ³Ľ": 3381,
      "æķ´ä¸ª": 3382,
      "Ġelect": 3383,
      "Ġresponse": 3384,
      "åįķè¯į": 3385,
      "æľĭ": 3386,
      "Ġ<": 3387,
      "åĮĸåŃ¦": 3388,
      "éĴĪ": 3389,
      "Ġquick": 3390,
      "ually": 3391,
      "Ġsomething": 3392,
      "Ġtrack": 3393,
      "åº¦åĴĮ": 3394,
      "erences": 3395,
      "æłĳ": 3396,
      "Ġaccuracy": 3397,
      "Ġexc": 3398,
      "é£ŀ": 3399,
      "Ġfield": 3400,
      "å¯»æī¾": 3401,
      "éħ¸": 3402,
      "Ġhope": 3403,
      "çĳ": 3404,
      "Ġinnov": 3405,
      "ç»ª": 3406,
      "alk": 3407,
      "Ġtypes": 3408,
      "Ġdid": 3409,
      "åĬª": 3410,
      "Ġcall": 3411,
      "è¯Ĺ": 3412,
      "Ġearly": 3413,
      "ĠOne": 3414,
      "app": 3415,
      "Ġcommon": 3416,
      "æľĢç»Ī": 3417,
      "Ġcheck": 3418,
      "Ġsym": 3419,
      "çĤĴ": 3420,
      "æĬĢèĥ½": 3421,
      "Ġenh": 3422,
      "Ġagricult": 3423,
      "Ġimm": 3424,
      "ç»ĩ": 3425,
      "æ»¡è¶³": 3426,
      "Ġschool": 3427,
      "bal": 3428,
      "Ġfollowing": 3429,
      "based": 3430,
      "Ġwebs": 3431,
      "Ġculture": 3432,
      "ĠCom": 3433,
      "way": 3434,
      "ä¸Ģå®ļ": 3435,
      "åķĨåĵģ": 3436,
      "ude": 3437,
      "çļĦåıĳå±ķ": 3438,
      "çĶŁäº§": 3439,
      "osystem": 3440,
      "Ġplant": 3441,
      "åı¶": 3442,
      "åĲĥ": 3443,
      "ä»ĸçļĦ": 3444,
      "der": 3445,
      "è¯¢": 3446,
      "å®¶åħ·": 3447,
      "Ġfree": 3448,
      "ç§»": 3449,
      "æİĮ": 3450,
      "Ġbody": 3451,
      "Ġpresent": 3452,
      "Ġparticularly": 3453,
      "Ġchildren": 3454,
      "Ġstudent": 3455,
      ").": 3456,
      "çī¹å¾ģ": 3457,
      "èĶ": 3458,
      "éĺħè¯»": 3459,
      "æķĪçİĩ": 3460,
      "Ġprogram": 3461,
      "éħ±": 3462,
      "åıĺå¾Ĺ": 3463,
      "ix": 3464,
      "Ġcome": 3465,
      "çļĦæ²": 3466,
      "ĠTe": 3467,
      "ĠTo": 3468,
      "åħ±åĲĮ": 3469,
      "Ġemployees": 3470,
      "è¯´æĺİ": 3471,
      "Ġheart": 3472,
      "Ġmot": 3473,
      "æľĭåıĭ": 3474,
      "eric": 3475,
      "è¯ĳ": 3476,
      "Ġcurrent": 3477,
      "æĪĲæľ¬": 3478,
      "Ġtoo": 3479,
      "çİ©å®¶": 3480,
      "åĪĽæĸ°": 3481,
      "Ġecosystem": 3482,
      "å¸¸è§ģ": 3483,
      "ä¸ĢæŃ¥": 3484,
      "Ġpres": 3485,
      "Ġmulti": 3486,
      "åĳĬè¯ī": 3487,
      "ä¸¥": 3488,
      "Ġmit": 3489,
      "Ġaction": 3490,
      "çĨŁ": 3491,
      "Ġhabit": 3492,
      "åı£æĦŁ": 3493,
      "ç®±": 3494,
      "Ġuses": 3495,
      "å¢ŀå¼º": 3496,
      "ç»Ļåĩº": 3497,
      "Ġ9": 3498,
      "Ġdep": 3499,
      "Ġeconomic": 3500,
      "æĢ§çļĦ": 3501,
      "18": 3502,
      "åĨ°": 3503,
      "Ġhelped": 3504,
      "åĲ¸å¼ķ": 3505,
      "çİĭ": 3506,
      "Ġdiagnos": 3507,
      "åł": 3508,
      "èģĶç³»": 3509,
      "ç¾¤": 3510,
      "ç»ĥä¹ł": 3511,
      "æĪĲéķ¿": 3512,
      "Ġpoint": 3513,
      "å®ļæľŁ": 3514,
      "åĳ¼": 3515,
      "èį¯": 3516,
      "æĿ¯": 3517,
      "æ¤Ĵ": 3518,
      "æķĪæŀľ": 3519,
      "Ġspecial": 3520,
      "æ··": 3521,
      "åĩłä¸ª": 3522,
      "ause": 3523,
      "éĨ": 3524,
      "æ¯ĶèµĽ": 3525,
      "è·Ŀ": 3526,
      "What": 3527,
      "Ġtimes": 3528,
      "icles": 3529,
      "Ġ*": 3530,
      "ç´§": 3531,
      "å¦Ĥæŀľä½ł": 3532,
      "çĭ¬çī¹": 3533,
      "çģµ": 3534,
      "ç¨İ": 3535,
      "Ġcarbon": 3536,
      "Ġbias": 3537,
      "åĬ©äºİ": 3538,
      "Ġconst": 3539,
      "èĩªçĶ±": 3540,
      "æĿ¥è¯´": 3541,
      "å°±æĺ¯": 3542,
      "åį°": 3543,
      "Ġmeet": 3544,
      "è§ĦåĪĴ": 3545,
      "çļĦç¾": 3546,
      "èĲ¥åħ»": 3547,
      "ators": 3548,
      "ç¨³å®ļ": 3549,
      "ode": 3550,
      "çħ®": 3551,
      "Ġassoci": 3552,
      "å¿Ĺ": 3553,
      "è¡ĮæĺŁ": 3554,
      "æĿİ": 3555,
      "Ġreview": 3556,
      "åĩĢ": 3557,
      "ĠRo": 3558,
      "Ġknowledge": 3559,
      "ä»¥ä¾¿": 3560,
      "æµĭè¯ķ": 3561,
      "åĲĪéĢĤ": 3562,
      "sc": 3563,
      "å½¢å¼ı": 3564,
      "Ġfriends": 3565,
      "Ġnature": 3566,
      "Ġcritical": 3567,
      "æ´ĭ": 3568,
      "Ġafter": 3569,
      "erve": 3570,
      "Ġrece": 3571,
      "çļĦæŃ": 3572,
      "æ±½è½¦": 3573,
      "çķĮ": 3574,
      "Ġloss": 3575,
      "Ġapplications": 3576,
      "å¤ļç§į": 3577,
      "éĶħ": 3578,
      "ä¸²": 3579,
      "Ġinsp": 3580,
      "---": 3581,
      "ĠSh": 3582,
      "Ġvol": 3583,
      "lut": 3584,
      "oks": 3585,
      "sequ": 3586,
      "Ġbir": 3587,
      "åĲĪçĲĨ": 3588,
      "Ġnecess": 3589,
      "æĪĳæĥ³": 3590,
      "çŃīæĸ¹éĿ¢": 3591,
      "é¼ĵ": 3592,
      "Ġsoft": 3593,
      "Ġlive": 3594,
      "å°ıæĺİ": 3595,
      "ĠInd": 3596,
      "Ġbring": 3597,
      "æĺ¯æĮĩ": 3598,
      "Ġsoil": 3599,
      "ilar": 3600,
      "ä¸ľ": 3601,
      "æĿ¡ä»¶": 3602,
      "Ġtri": 3603,
      "äº®": 3604,
      "Ġmom": 3605,
      "æı¡": 3606,
      "ä¼°": 3607,
      "ŀäºī": 3608,
      "çĽĳ": 3609,
      "èĤ¤": 3610,
      "è´¢åĬ¡": 3611,
      "æ·»åĬł": 3612,
      "é¥®é£Ł": 3613,
      "Ġallowing": 3614,
      "åºķ": 3615,
      "Ġright": 3616,
      "Ġexpert": 3617,
      "Ġsupp": 3618,
      "Ġinit": 3619,
      "çļĦæµ": 3620,
      "arget": 3621,
      "Ġexpect": 3622,
      "Ġ19": 3623,
      "Ġmeasures": 3624,
      "olutions": 3625,
      "just": 3626,
      "arc": 3627,
      "å°ļ": 3628,
      "Ġpractice": 3629,
      "æľīåĬ©äºİ": 3630,
      "å¤§éĩı": 3631,
      "',": 3632,
      "iment": 3633,
      "Ġcontinue": 3634,
      "Ġdiscuss": 3635,
      "100": 3636,
      "éļľ": 3637,
      "çļĦæĦŁ": 3638,
      "Ġreflect": 3639,
      "itation": 3640,
      "åį«": 3641,
      "äºĨä¸Ģ": 3642,
      "ney": 3643,
      "ĠLe": 3644,
      "ised": 3645,
      "è¶ĭ": 3646,
      "äºĨä¸Ģä¸ª": 3647,
      "Ġincreasing": 3648,
      "çļĦæĮ": 3649,
      "Ġstru": 3650,
      "æĢ»ç»ĵ": 3651,
      "ely": 3652,
      "å®ĩ": 3653,
      "Ġauthor": 3654,
      "è¡¨éĿ¢": 3655,
      "Ġx": 3656,
      "æķħäºĭ": 3657,
      "emic": 3658,
      "Ġrepresent": 3659,
      "ger": 3660,
      "Ġincreased": 3661,
      "ones": 3662,
      "ains": 3663,
      "Ġtrained": 3664,
      "Ġfish": 3665,
      "Ġstate": 3666,
      "åĨ·": 3667,
      "çĶŁéķ¿": 3668,
      "Ġrenew": 3669,
      "ording": 3670,
      "åĮĹ": 3671,
      "æİªæĸ½": 3672,
      "å¹³è¡¡": 3673,
      "Ġsuccessful": 3674,
      "ä¸ĭéĿ¢": 3675,
      "Ġactivity": 3676,
      "èĮ¶": 3677,
      "éĢĤåºĶ": 3678,
      "èĦĳ": 3679,
      "æİ¢ç´¢": 3680,
      "ffic": 3681,
      "ç»ĦæĪĲ": 3682,
      "atives": 3683,
      "äºļ": 3684,
      "Ġscen": 3685,
      "æ²Ļ": 3686,
      "gress": 3687,
      "ä½¿å¾Ĺ": 3688,
      "æī¿": 3689,
      "Ġdiscrim": 3690,
      "Ġassistants": 3691,
      "Ġexist": 3692,
      "çķĻ": 3693,
      "Ġspace": 3694,
      "æľĢè¿ĳ": 3695,
      "Ġideas": 3696,
      "éĩĩåıĸ": 3697,
      "light": 3698,
      "æ³¨éĩį": 3699,
      "çļĦæĹ¶éĹ´": 3700,
      "è¿İ": 3701,
      "Ġcomb": 3702,
      "éĢĤå½ĵ": 3703,
      "Ġyourself": 3704,
      "rite": 3705,
      "ason": 3706,
      "åĮĢ": 3707,
      "åı¯ä»¥ä½¿çĶ¨": 3708,
      "åħħæ»¡": 3709,
      "Ġvalues": 3710,
      "æ½": 3711,
      "Ġbiases": 3712,
      "ä¿ĥè¿Ľ": 3713,
      "åľºæĻ¯": 3714,
      "ross": 3715,
      "åį³åı¯": 3716,
      "Ġcru": 3717,
      "Ġnumber": 3718,
      "Ġtype": 3719,
      "rast": 3720,
      "åĩĨç¡®": 3721,
      "This": 3722,
      "Ġpast": 3723,
      "çģ¯": 3724,
      "å®ļä¹ī": 3725,
      "Ġsolutions": 3726,
      "Ġter": 3727,
      "ä¿Ŀè¯ģ": 3728,
      "èĶ¬": 3729,
      "å¹¸": 3730,
      "åī§": 3731,
      "åħ´è¶£": 3732,
      "åª": 3733,
      "ention": 3734,
      "avor": 3735,
      "Ġscient": 3736,
      "åĬªåĬĽ": 3737,
      "Ġproviders": 3738,
      "Ġpolicies": 3739,
      "alu": 3740,
      "ĠIm": 3741,
      "Ġallows": 3742,
      "Ġintelligence": 3743,
      "çļĦæĸ¹æ³ķ": 3744,
      "è¿Ļæĺ¯": 3745,
      "Ġ`": 3746,
      "Ġemissions": 3747,
      "Ġå°Ĩ": 3748,
      "Ġmeaning": 3749,
      "Ġstyle": 3750,
      "åİŁåĽł": 3751,
      "Ġstrugg": 3752,
      "çļĦç¾İ": 3753,
      "iful": 3754,
      "dition": 3755,
      "éĥ½æľī": 3756,
      "ç©ºæ°Ķ": 3757,
      "å®ĥä»¬çļĦ": 3758,
      "ä¼ĺåĮĸ": 3759,
      "Ġinflu": 3760,
      "åŁºäºİ": 3761,
      "Ġdetails": 3762,
      "Ġtransparency": 3763,
      "Ġmess": 3764,
      "ĠCl": 3765,
      "Ġgame": 3766,
      "pri": 3767,
      "è¶ĭåĬ¿": 3768,
      "å½Ĵ": 3769,
      "ç¿»è¯ĳ": 3770,
      "æķ£": 3771,
      "By": 3772,
      "éŃ": 3773,
      "ĠAmeric": 3774,
      "Ġproduction": 3775,
      "Ġincorpor": 3776,
      "æĻļ": 3777,
      "Ġinvolve": 3778,
      "Ġhot": 3779,
      "æĻ®": 3780,
      "by": 3781,
      "Ġflow": 3782,
      "Ġemerg": 3783,
      "åº§": 3784,
      "Ġidea": 3785,
      "åİĭåĬĽ": 3786,
      "éĿĴ": 3787,
      "oms": 3788,
      "èģĮä¸ļ": 3789,
      "Ġreport": 3790,
      "Ġpap": 3791,
      "Ġtherap": 3792,
      "Ġsal": 3793,
      "åıĤä¸İ": 3794,
      "æĸĩåŃ¦": 3795,
      "æĲŃéħį": 3796,
      "oot": 3797,
      "),": 3798,
      "Ġcr": 3799,
      "Ġprocesses": 3800,
      "gin": 3801,
      "å¹³åı°": 3802,
      "å¯Ł": 3803,
      "Ġpromoting": 3804,
      "æļĸ": 3805,
      "akehold": 3806,
      "ç»§": 3807,
      "iver": 3808,
      "æ¦Ĥ": 3809,
      "Ġmodels": 3810,
      "Ġdra": 3811,
      "èĸ": 3812,
      "Ġgroup": 3813,
      "è¶³å¤Ł": 3814,
      "Ġgreen": 3815,
      "Ġhealthy": 3816,
      "Ġcomfort": 3817,
      "Ġadditional": 3818,
      "ä¸Ģæ¬¡": 3819,
      "é¤Ĳåİħ": 3820,
      "Ġmaterials": 3821,
      "Ġmanage": 3822,
      "çļĦæ¯": 3823,
      "ä¼¤": 3824,
      "åıĬæĹ¶": 3825,
      "Ġglo": 3826,
      "Ġstat": 3827,
      "å¿«éĢŁ": 3828,
      "Ġmonitoring": 3829,
      "aily": 3830,
      "rand": 3831,
      "oice": 3832,
      "resh": 3833,
      "ç»Ħç»ĩ": 3834,
      "Ġunder": 3835,
      "Ġnecessary": 3836,
      "Ġhelpful": 3837,
      "ĠCol": 3838,
      "é»ĳæ´ŀ": 3839,
      "åģļåĩº": 3840,
      "Ġcourse": 3841,
      "Ġmat": 3842,
      "Ġleg": 3843,
      "Ġface": 3844,
      "ä»¤": 3845,
      "èī¯å¥½çļĦ": 3846,
      "ock": 3847,
      "åĮ»çĸĹ": 3848,
      "çĽĸ": 3849,
      "idence": 3850,
      "Ġassociated": 3851,
      "Ġprogress": 3852,
      "åľĨ": 3853,
      "Ġeveryone": 3854,
      "ç¼ĵ": 3855,
      "ĠEng": 3856,
      "word": 3857,
      "èĵĿ": 3858,
      "å¤©æ°Ķ": 3859,
      "Ġactions": 3860,
      "ems": 3861,
      "ĠPl": 3862,
      "å®Ļ": 3863,
      "ush": 3864,
      "é¡¾": 3865,
      "Ġcosts": 3866,
      "ator": 3867,
      "ç©¿": 3868,
      "Ġamounts": 3869,
      "èĶ¬èıľ": 3870,
      "..": 3871,
      "Ġmanner": 3872,
      "Ġconsequ": 3873,
      "æ°ĶåĢĻ": 3874,
      "Ġinsights": 3875,
      "being": 3876,
      "atory": 3877,
      "ener": 3878,
      "lex": 3879,
      "Ġmeans": 3880,
      "Ġcollaboration": 3881,
      "Ġperspect": 3882,
      "orm": 3883,
      "priate": 3884,
      "å°Ĭéĩį": 3885,
      "Ġtarget": 3886,
      "è®°å½ķ": 3887,
      "åĢĴ": 3888,
      "Ġrenewable": 3889,
      "æĦ¿": 3890,
      "èĥ½æºĲ": 3891,
      "Ġinput": 3892,
      "å®ĩå®Ļ": 3893,
      "ape": 3894,
      "Ġadjust": 3895,
      "eries": 3896,
      "Ġdire": 3897,
      "ä¾Ŀ": 3898,
      "ustr": 3899,
      "fect": 3900,
      "Ġbeautiful": 3901,
      "Ġdue": 3902,
      "reci": 3903,
      "çĮ®": 3904,
      "èĥĮæĻ¯": 3905,
      "èĤ¡": 3906,
      "Ġdam": 3907,
      "ik": 3908,
      "Ġadvanced": 3909,
      "çĽ¸å¯¹": 3910,
      "åĲįç§°": 3911,
      "Ġshort": 3912,
      "Ġobject": 3913,
      "è¿ĻéĩĮ": 3914,
      "éĢłæĪĲ": 3915,
      "èĲ¥éĶĢ": 3916,
      "çļĦæĥħæĦŁ": 3917,
      "ç¥¨": 3918,
      "Ġcountries": 3919,
      "ining": 3920,
      "istic": 3921,
      "Ġplans": 3922,
      "è´£ä»»": 3923,
      "Ġstakehold": 3924,
      "the": 3925,
      "Ġassess": 3926,
      "æĢĿèĢĥ": 3927,
      "ech": 3928,
      "æĪĲåĳĺ": 3929,
      "21": 3930,
      "Ġdaily": 3931,
      "Ġcomput": 3932,
      "çļĦæĥħåĨµ": 3933,
      "æıĲåĩº": 3934,
      "ĠâĢľ": 3935,
      "åªĴ": 3936,
      "ä¸Ńå¿ĥ": 3937,
      "ished": 3938,
      "ĠSe": 3939,
      "onomous": 3940,
      "ern": 3941,
      "ç»´æĬ¤": 3942,
      "ames": 3943,
      "Ġprioritize": 3944,
      "çº¸": 3945,
      "èĤ¥": 3946,
      "Ġtemper": 3947,
      "æ¸ħæ´ģ": 3948,
      "use": 3949,
      "æ±¡": 3950,
      "Ġminim": 3951,
      "æĺ¯åľ¨": 3952,
      "å¤§å°ı": 3953,
      "åĵªäºĽ": 3954,
      "Ġappreci": 3955,
      "reng": 3956,
      "Ġregulations": 3957,
      "ĠZ": 3958,
      "éĶĻè¯¯": 3959,
      "rans": 3960,
      "èĢĮä¸Ķ": 3961,
      "èĪ¬": 3962,
      "èĳ±": 3963,
      "èĨ": 3964,
      "æ°´å¹³": 3965,
      "è´Ńçī©": 3966,
      "åŃĹç¬¦ä¸²": 3967,
      "å¯¹æĸ¹": 3968,
      "Ġhim": 3969,
      "Ġconsequences": 3970,
      "å·´": 3971,
      "é¼ĵåĬ±": 3972,
      "Ġfil": 3973,
      "äººåĳĺ": 3974,
      "è·Ŀç¦»": 3975,
      "ĠWhen": 3976,
      "çļĦæ°´": 3977,
      "çī©çĲĨ": 3978,
      "åĲĮæĹ¶ä¹Ł": 3979,
      "åľ¨è¿Ļä¸ª": 3980,
      "åħ¶æ¬¡": 3981,
      ",\"": 3982,
      "æ¶²": 3983,
      "çĶ·": 3984,
      "ival": 3985,
      "åı¯ä»¥è®©": 3986,
      "æĥ¯": 3987,
      "Ġadvance": 3988,
      "Ġveh": 3989,
      "å¦ĤæŀľæĤ¨": 3990,
      "Ġestab": 3991,
      "ript": 3992,
      "ç«¯": 3993,
      "ä¸įä¼ļ": 3994,
      "Ġtransparent": 3995,
      "æķ°éĩı": 3996,
      "çĽĺ": 3997,
      "Ġspeak": 3998,
      "Ġpark": 3999,
      "Ġstakeholders": 4000,
      "éº": 4001,
      "Ġevent": 4002,
      "çļĦæķ°æį®": 4003,
      "èĩªåĬ¨": 4004,
      "ç»ĨèĬĤ": 4005,
      "è¯Ħä¼°": 4006,
      "æ¶¦": 4007,
      "Ġpreferences": 4008,
      "Ġveget": 4009,
      "æįŁ": 4010,
      "equ": 4011,
      "Ġgl": 4012,
      "Ġpain": 4013,
      "ogra": 4014,
      "Ġtraffic": 4015,
      "Ġoce": 4016,
      "ä¹ĺ": 4017,
      "ext": 4018,
      "âĢĿï¼Į": 4019,
      "Ġanother": 4020,
      "å¤ļå°ĳ": 4021,
      "Ġagainst": 4022,
      "ç»ıåİĨ": 4023,
      "è®¡ç®Ĺæľº": 4024,
      "èĢĲ": 4025,
      "è½¯ä»¶": 4026,
      "ĠPre": 4027,
      "Ġplants": 4028,
      "çĽ¸äºĴ": 4029,
      "é¢ĳ": 4030,
      "\\_": 4031,
      "Ġsame": 4032,
      "rug": 4033,
      "Ġvalu": 4034,
      "Ġocc": 4035,
      "çļĦç¤": 4036,
      "Ġsustainability": 4037,
      "ĠShe": 4038,
      "de": 4039,
      "ote": 4040,
      "Ġdig": 4041,
      "NA": 4042,
      "Ġcrucial": 4043,
      "æī§": 4044,
      "å±Ģ": 4045,
      "æĭŁ": 4046,
      "æĭĮ": 4047,
      "Ġnon": 4048,
      "Ġengaging": 4049,
      "Ġintern": 4050,
      "LP": 4051,
      "æ¸©åº¦": 4052,
      "æł¸": 4053,
      "æĬ¥åĳĬ": 4054,
      "æĿ¥è¶Ĭ": 4055,
      "hood": 4056,
      "ä¸īä¸ª": 4057,
      "å¦Ĥä¸ĭ": 4058,
      "çī©ä½ĵ": 4059,
      "force": 4060,
      "Ġneeded": 4061,
      "Ġimages": 4062,
      "Ġbuilding": 4063,
      "icious": 4064,
      "ĠæĪĳ": 4065,
      "è¶ĬæĿ¥è¶Ĭ": 4066,
      "æĶ¾åħ¥": 4067,
      "go": 4068,
      "éĻįä½İ": 4069,
      "å½ĵåľ°": 4070,
      "æ¶Īè´¹èĢħ": 4071,
      "ç£": 4072,
      "iversity": 4073,
      "é¢Ħç®Ĺ": 4074,
      "icle": 4075,
      "æ··åĲĪ": 4076,
      "Ġparticip": 4077,
      "Ġdishes": 4078,
      "Ġthroughout": 4079,
      "Ġwithin": 4080,
      "åı³": 4081,
      "é«ĺçļĦ": 4082,
      "Ġphot": 4083,
      "Ġtrust": 4084,
      "æĦıè¯Ĩ": 4085,
      "ä»¥ç¡®ä¿Ŀ": 4086,
      "çĬ¶æĢģ": 4087,
      "Ġautomation": 4088,
      "11": 4089,
      "Ġpost": 4090,
      "æīĭæľº": 4091,
      "works": 4092,
      "éĢı": 4093,
      "åºĵ": 4094,
      "Ġwind": 4095,
      "Ġ==": 4096,
      "Ġprocessing": 4097,
      "èĮĥåĽ´": 4098,
      "æĦıä¹ī": 4099,
      "è¿½æ±Ĥ": 4100,
      "Ã©": 4101,
      "å¾Ħ": 4102,
      "éĿł": 4103,
      "ä¸ĸ": 4104,
      "èĻ½": 4105,
      "ç«ŀäºī": 4106,
      "Ġappropriate": 4107,
      "æĽ´å¥½çļĦ": 4108,
      "Ġcharacter": 4109,
      "cl": 4110,
      "ç§ĺ": 4111,
      "itude": 4112,
      "Ġteac": 4113,
      "leep": 4114,
      "ĠDevelop": 4115,
      "ince": 4116,
      "å·¦": 4117,
      "ground": 4118,
      "è¡Įä¸ļ": 4119,
      "éĴĪå¯¹": 4120,
      "å¿ħè¦ģ": 4121,
      "Ġdeterm": 4122,
      "----------------": 4123,
      "Ġstreng": 4124,
      "do": 4125,
      "Ġchallenging": 4126,
      "ork": 4127,
      "Ġanx": 4128,
      "èī²çļĦ": 4129,
      "Ġhard": 4130,
      "æĺİç¡®": 4131,
      "åĪĨäº«": 4132,
      "æĶ¹åıĺ": 4133,
      "ä½³": 4134,
      "åıªæľī": 4135,
      "å±ķç¤º": 4136,
      "Ġcamp": 4137,
      "çº³": 4138,
      "aj": 4139,
      "etic": 4140,
      "ument": 4141,
      "ä½łåı¯ä»¥": 4142,
      "Ġpollut": 4143,
      "Ġhig": 4144,
      "pping": 4145,
      "ead": 4146,
      "çĦ¶èĢĮ": 4147,
      "ç¬¬äºĮ": 4148,
      "é¸Ł": 4149,
      "çī©åĵģ": 4150,
      "ä¸¾": 4151,
      "Ġencourage": 4152,
      "pecial": 4153,
      "Ġacross": 4154,
      "elves": 4155,
      "äºĭä»¶": 4156,
      "cle": 4157,
      "æ©": 4158,
      "åªĴä½ĵ": 4159,
      "ners": 4160,
      "Ġcal": 4161,
      "èĻ½çĦ¶": 4162,
      "åĽº": 4163,
      "ä¹łæĥ¯": 4164,
      "Ġsafe": 4165,
      "èĥ½éĩı": 4166,
      "istics": 4167,
      "ä¹ĭåīį": 4168,
      "Ġissue": 4169,
      "å¤ļä¸ª": 4170,
      "åĨ³çŃĸ": 4171,
      "è¾¾åĪ°": 4172,
      "æĹ©": 4173,
      "ä¸įåı¯": 4174,
      "ä¸ĢçĽ´": 4175,
      "å·¨": 4176,
      "æĦŁè°¢": 4177,
      "ĠNew": 4178,
      "ä¸Ģæ®µ": 4179,
      "Ġmachines": 4180,
      "å°Ĩåħ¶": 4181,
      "ç»§ç»Ń": 4182,
      "Ġword": 4183,
      "çī¹åĪ«": 4184,
      "Ġagriculture": 4185,
      "æĢİ": 4186,
      "éĢĲæ¸Ĳ": 4187,
      "éĵ¾": 4188,
      "è¯¾": 4189,
      "Ġkind": 4190,
      "å¢Ļ": 4191,
      "è°¢è°¢": 4192,
      "Ġalgorithm": 4193,
      "è£ħé¥°": 4194,
      "Ġalong": 4195,
      "Ġeasy": 4196,
      "äºĳ": 4197,
      "è§£åĨ³æĸ¹æ¡Ī": 4198,
      "Ġawareness": 4199,
      "'ve": 4200,
      "æĸ¹åĲĳ": 4201,
      "Ġnever": 4202,
      "Ġquickly": 4203,
      "Ġrespect": 4204,
      "çļĦæĻ": 4205,
      "Ġamong": 4206,
      "Ġaccountability": 4207,
      "Ġlaw": 4208,
      "ening": 4209,
      "Ġdefin": 4210,
      "Ġsurround": 4211,
      "éĵģ": 4212,
      "Ġpowerful": 4213,
      "An": 4214,
      "Ġcause": 4215,
      "æ¥": 4216,
      "æİĮæı¡": 4217,
      "è¿ĺæĺ¯": 4218,
      "Ġcreative": 4219,
      "è¡Ģ": 4220,
      "Ġlocated": 4221,
      "unning": 4222,
      "åľ°åĮº": 4223,
      "éĿ¢ç§¯": 4224,
      "éĽ¨": 4225,
      "Ġnear": 4226,
      "Ġiniti": 4227,
      "ression": 4228,
      "ä¸ĭæĿ¥": 4229,
      "25": 4230,
      "é©¶": 4231,
      "¾çĹħ": 4232,
      "ables": 4233,
      "æľīè¶£": 4234,
      "å¾ªçİ¯": 4235,
      "çŃĶæ¡Ī": 4236,
      "çł´": 4237,
      "ication": 4238,
      "éĻ¢": 4239,
      "æ²»çĸĹ": 4240,
      "Ġaddition": 4241,
      "äºĭæĥħ": 4242,
      "Ġbecause": 4243,
      "åıĪ": 4244,
      "èĤĮ": 4245,
      "çºª": 4246,
      "side": 4247,
      "æĭħ": 4248,
      "æ¹¿": 4249,
      "åįĬ": 4250,
      "é¡º": 4251,
      "ĠAnd": 4252,
      "Ġrestaurant": 4253,
      "Ġvide": 4254,
      "Ġproblem": 4255,
      "azing": 4256,
      "Ġmembers": 4257,
      "Ġnut": 4258,
      "Ġcou": 4259,
      "æµª": 4260,
      "Ġè¿Ļ": 4261,
      "Ġhelping": 4262,
      "ĠIs": 4263,
      "æıĲåįĩ": 4264,
      "ĠĠĠĠĠĠ": 4265,
      "Ġsho": 4266,
      "Ġrelev": 4267,
      "Ġarg": 4268,
      "Ġbalance": 4269,
      "illed": 4270,
      "æĺ¯ä»Ģä¹Ī": 4271,
      "åĬĽéĩı": 4272,
      "ired": 4273,
      "å¤ľ": 4274,
      "åı¯æĮģç»Ń": 4275,
      "Ġperfect": 4276,
      "**": 4277,
      "ification": 4278,
      "æ¶ī": 4279,
      "Ġwildlife": 4280,
      "ane": 4281,
      "Ġrelated": 4282,
      "å®¤åĨħ": 4283,
      "åºľ": 4284,
      "äº«åıĹ": 4285,
      "ours": 4286,
      "è·ĳ": 4287,
      "åķĨä¸ļ": 4288,
      "aching": 4289,
      "Ġsun": 4290,
      "Ġrecognition": 4291,
      "elt": 4292,
      "Ġorder": 4293,
      "å¹³åĿĩ": 4294,
      "ging": 4295,
      "ä¸´": 4296,
      "çĤ¼": 4297,
      "Ġgoing": 4298,
      "åĳ¼åĲ¸": 4299,
      "Ġsoftware": 4300,
      "Ġremot": 4301,
      "èĳĹåĲį": 4302,
      "å¹¸ç¦ı": 4303,
      "Ġenhance": 4304,
      "èĻļ": 4305,
      "Ġnow": 4306,
      "Ġthreat": 4307,
      "Ġdest": 4308,
      "åĿĩåĮĢ": 4309,
      "Ġacad": 4310,
      "åºĶå¯¹": 4311,
      "çľĭåĪ°": 4312,
      "cast": 4313,
      "è¾Ĩ": 4314,
      "ificial": 4315,
      "Ġvery": 4316,
      "ook": 4317,
      "åĮºåŁŁ": 4318,
      "¹ģ": 4319,
      "æĪ¿éĹ´": 4320,
      "æıĲä¾ĽäºĨ": 4321,
      "Ġmotiv": 4322,
      "Ġaccessible": 4323,
      "åĨ³å®ļ": 4324,
      "Ġhy": 4325,
      "å®Ī": 4326,
      "Ġflo": 4327,
      "ug": 4328,
      "Ġinformed": 4329,
      "åĵģè´¨": 4330,
      "çļĦçŁ": 4331,
      "aves": 4332,
      "arr": 4333,
      "ĠWith": 4334,
      "let": 4335,
      "è§ĤçĤ¹": 4336,
      "enge": 4337,
      "è¡ĮåĬ¨": 4338,
      "friend": 4339,
      "ç³ķ": 4340,
      "Ġfurther": 4341,
      "ĠEns": 4342,
      "ç§ģ": 4343,
      "Ġado": 4344,
      "Ġclean": 4345,
      "çĽ¸åºĶ": 4346,
      "Ġfre": 4347,
      "pecially": 4348,
      "èĹ": 4349,
      "Ġcapt": 4350,
      "çļĦçľ": 4351,
      "Ġsomeone": 4352,
      "Ġcell": 4353,
      "æĶ¾åľ¨": 4354,
      "æ¬¢è¿İ": 4355,
      "ĠâĢ": 4356,
      "Ġdevices": 4357,
      "çļĦæĸ¹å¼ı": 4358,
      "Ġjobs": 4359,
      "augh": 4360,
      "not": 4361,
      "æľīäºĽ": 4362,
      "åħ¬åħ±": 4363,
      "gest": 4364,
      "çļĦçĶŁæ´»": 4365,
      "çľ¼": 4366,
      "çļĦä¿¡æģ¯": 4367,
      "ĠCons": 4368,
      "æİĴåºı": 4369,
      "Ġbenefit": 4370,
      "rect": 4371,
      "å¤ı": 4372,
      "unte": 4373,
      "ç¬¦åĲĪ": 4374,
      "ä¸Ģä½į": 4375,
      "åĨħéĥ¨": 4376,
      "Ġlooking": 4377,
      "ding": 4378,
      "æĬĺ": 4379,
      "è¾ĳ": 4380,
      "è¿Ļä¸ªéĹ®é¢ĺ": 4381,
      "Ġespecially": 4382,
      "çľł": 4383,
      "âĢĿãĢĤ": 4384,
      "å¥ı": 4385,
      "ray": 4386,
      "è¿ĺåı¯ä»¥": 4387,
      "åĪĽä½ľ": 4388,
      "coming": 4389,
      "Ġmultiple": 4390,
      "éļĲ": 4391,
      "æ³¡": 4392,
      "æłĩåĩĨ": 4393,
      "Ġmil": 4394,
      "éľĢè¦ģæ³¨æĦı": 4395,
      "Ġanxiety": 4396,
      "æĶ¹è¿Ľ": 4397,
      "å±ĭ": 4398,
      "æ±¡æŁĵ": 4399,
      "ç¼ĸç¨ĭ": 4400,
      "è´¹çĶ¨": 4401,
      "Ġevalu": 4402,
      "imately": 4403,
      "Ġliter": 4404,
      "ograph": 4405,
      "Ġsearch": 4406,
      "16": 4407,
      "enced": 4408,
      "Ġmethods": 4409,
      "çĥĪ": 4410,
      "æ¨¡å¼ı": 4411,
      "çĬ¶åĨµ": 4412,
      "æĶ¹åĸĦ": 4413,
      "å¤ļæł·": 4414,
      "cer": 4415,
      "å¥ĸ": 4416,
      "Ġsatis": 4417,
      "Ġwebsite": 4418,
      "åĬŀ": 4419,
      "åģ¥èº«": 4420,
      "Ġglobal": 4421,
      "Ġask": 4422,
      "Ġplatforms": 4423,
      "Ġdiseases": 4424,
      "çİ°è±¡": 4425,
      "tics": 4426,
      "æ±ģ": 4427,
      "åĪ¤æĸŃ": 4428,
      "Ġconvers": 4429,
      "Ġrelationship": 4430,
      "è®¾ç½®": 4431,
      "æ³ķå¾ĭ": 4432,
      "Ġmindful": 4433,
      "é¢Ħæµĭ": 4434,
      "overy": 4435,
      "åģľ": 4436,
      "çĶµè§Ĩ": 4437,
      "è§ĦåĪĻ": 4438,
      "aken": 4439,
      "Ġimplementing": 4440,
      "ising": 4441,
      "åıĤåĬł": 4442,
      "æĥħç»ª": 4443,
      "Ġprovided": 4444,
      "æ·±åħ¥": 4445,
      "Ġprogrammed": 4446,
      "Ġrelevant": 4447,
      "çļĦçĥ": 4448,
      "çĸ¾çĹħ": 4449,
      "åĮ»çĶŁ": 4450,
      "åĪĽå»º": 4451,
      "Ġgenerate": 4452,
      "æĶ¶åħ¥": 4453,
      "ä¼ĳ": 4454,
      "izes": 4455,
      "Ġtransform": 4456,
      "éģµ": 4457,
      "astic": 4458,
      "åĳĪ": 4459,
      "æ¯ıä¸ªäºº": 4460,
      "è¿Ķ": 4461,
      "iet": 4462,
      "Ġvoice": 4463,
      "éĢĶ": 4464,
      "æĶ¾æĿ¾": 4465,
      "åį´": 4466,
      "èĥľ": 4467,
      "Ġstructure": 4468,
      "æĹ¶å°ļ": 4469,
      "ĠQ": 4470,
      "Ġelse": 4471,
      "duc": 4472,
      "Ġemp": 4473,
      "èģļ": 4474,
      "è´§": 4475,
      "aches": 4476,
      "ç§Ģ": 4477,
      "anks": 4478,
      "Ġnight": 4479,
      "Ġprofessionals": 4480,
      "Ġbas": 4481,
      "è´µ": 4482,
      "ec": 4483,
      "Ġdiversity": 4484,
      "ites": 4485,
      "dr": 4486,
      "åĽ°éļ¾": 4487,
      "ĥåľ": 4488,
      "åŀĥåľ": 4489,
      "åŀĥåľ¾": 4490,
      "Ġdrug": 4491,
      "ç¢³": 4492,
      "Ġname": 4493,
      "åĮĸçļĦ": 4494,
      "aid": 4495,
      "æľĢå¤§": 4496,
      "æĳĦ": 4497,
      "ç®ĢåįķçļĦ": 4498,
      "Ġwarm": 4499,
      "Ġdone": 4500,
      "Ġfunction": 4501,
      "asc": 4502,
      "å¼ºè°ĥ": 4503,
      "Ġdemand": 4504,
      "Ġvisual": 4505,
      "Ġupd": 4506,
      "æŃ£åľ¨": 4507,
      "Ġsimilar": 4508,
      "éĢĴ": 4509,
      "æ¯Ľ": 4510,
      "éĶ»": 4511,
      "ently": 4512,
      "Ġvaluable": 4513,
      "Ġdisaster": 4514,
      "ä¸ĢèĪ¬": 4515,
      "æ´²": 4516,
      "ĠReg": 4517,
      "Ġdiscrimination": 4518,
      "åĨĻä¸Ģç¯ĩ": 4519,
      "Ġgovernment": 4520,
      "Ġå¥½çļĦ": 4521,
      "500": 4522,
      "lying": 4523,
      "Ġprev": 4524,
      "Ġprepare": 4525,
      "Ġproblems": 4526,
      "è·³": 4527,
      "Ġprom": 4528,
      "åĨ²": 4529,
      "å®īè£ħ": 4530,
      "éĶ»çĤ¼": 4531,
      "æµĵ": 4532,
      "è¹": 4533,
      "åºĶçĶ¨ç¨ĭåºı": 4534,
      "ng": 4535,
      "Ġcompet": 4536,
      "åĪĨåĪ«": 4537,
      "ological": 4538,
      "å®¡": 4539,
      "Ġtransl": 4540,
      "Ġdirect": 4541,
      "åīĤ": 4542,
      "Ġsuggestions": 4543,
      "Ġpaper": 4544,
      "Ġrecognize": 4545,
      "ton": 4546,
      "Ġmitigate": 4547,
      "è®¨è®º": 4548,
      "äºĴåĬ¨": 4549,
      "ĠEar": 4550,
      "Ġamazing": 4551,
      "cre": 4552,
      "é¦Ī": 4553,
      "Ġinvolved": 4554,
      "face": 4555,
      "æľīåħ³": 4556,
      "))": 4557,
      "Ġexce": 4558,
      "Ġproductivity": 4559,
      "èŃ": 4560,
      "é¦Ĩ": 4561,
      "Ġsounds": 4562,
      "Ġidentifying": 4563,
      "],": 4564,
      "é¾Ļ": 4565,
      "Ġfit": 4566,
      "Ġcontribute": 4567,
      "ths": 4568,
      "friendly": 4569,
      "ele": 4570,
      "ified": 4571,
      "iveness": 4572,
      "itely": 4573,
      "ĠX": 4574,
      "Ġled": 4575,
      "åĿı": 4576,
      "Ġhistor": 4577,
      "Ġdat": 4578,
      "Ġjourney": 4579,
      "Ġ}": 4580,
      "Ġselect": 4581,
      "æ¼«": 4582,
      "Ġconduct": 4583,
      "è¿Ľä¸ĢæŃ¥": 4584,
      "ç»ĻæĪĳ": 4585,
      "Ġlif": 4586,
      "è£ħä¿®": 4587,
      "ä¸ºä»Ģä¹Ī": 4588,
      "äº¬": 4589,
      "Ġnav": 4590,
      "Ġwhole": 4591,
      "ç¹ģ": 4592,
      "åĨľ": 4593,
      "æĶ»": 4594,
      "Ġbreat": 4595,
      "Ġmiss": 4596,
      "é¾Ħ": 4597,
      "tt": 4598,
      "sw": 4599,
      "Ġbar": 4600,
      "è¯·éĹ®": 4601,
      "èģĶç½ĳ": 4602,
      "Ġattract": 4603,
      "æĤ¨åı¯ä»¥": 4604,
      "One": 4605,
      "åħħåĪĨ": 4606,
      "ring": 4607,
      "Ġå½ĵçĦ¶": 4608,
      "ream": 4609,
      "Ġevol": 4610,
      "Ġsn": 4611,
      "ĠEm": 4612,
      "mosp": 4613,
      "Ġchoose": 4614,
      "view": 4615,
      "Ġarr": 4616,
      "Ġsleep": 4617,
      "ended": 4618,
      "æŀ¶": 4619,
      "Ġvehicles": 4620,
      "Ġfresh": 4621,
      "Ġorganization": 4622,
      "è¿Ļæ®µ": 4623,
      "æ±¤": 4624,
      "ĠInt": 4625,
      "Ġcontext": 4626,
      "åı¦å¤ĸ": 4627,
      "Ġocean": 4628,
      "æĦŁåıĹ": 4629,
      "Ġpollution": 4630,
      "urb": 4631,
      "æī§è¡Į": 4632,
      "ersonal": 4633,
      "ĠHealth": 4634,
      "ä¼ĺçĤ¹": 4635,
      "Ġattention": 4636,
      "æľīçĿĢ": 4637,
      "é£ŁæĿĲ": 4638,
      "Ġerr": 4639,
      "çļĦæĿ¥": 4640,
      "çļĦçĪ": 4641,
      "èŃ¦": 4642,
      "è·Ł": 4643,
      "æĹħè¡Į": 4644,
      "èĴľ": 4645,
      "çļĦæĢĿ": 4646,
      "Ġchatbot": 4647,
      "çļĦéľĢæ±Ĥ": 4648,
      "çķ¥": 4649,
      "Ġfeeling": 4650,
      "Ġimplemented": 4651,
      "ç¤¾åĮº": 4652,
      "çļĦå»ºè®®": 4653,
      "æĲħ": 4654,
      "éĹ»": 4655,
      "åıįé¦Ī": 4656,
      "çĽ´æİ¥": 4657,
      "æĺ¥": 4658,
      "itable": 4659,
      "æĪĳä¼ļ": 4660,
      "åį±": 4661,
      "èī¯å¥½": 4662,
      "Ġliving": 4663,
      "åıĺéĩı": 4664,
      "ĠBut": 4665,
      "Ġcomplete": 4666,
      "Ġtrends": 4667,
      "Ġmakes": 4668,
      "ä»Ĭå¤©": 4669,
      "Ġdistribut": 4670,
      "Ġcommit": 4671,
      "Ġatmosp": 4672,
      "ä¼´": 4673,
      "Ġsensors": 4674,
      "Ġsw": 4675,
      "æĹłè®º": 4676,
      "omen": 4677,
      "æĶ¿åºľ": 4678,
      "Ġchallenge": 4679,
      "Ġturn": 4680,
      "çĲĨè®º": 4681,
      "par": 4682,
      "Ġwrite": 4683,
      "ç»ıåħ¸": 4684,
      "emember": 4685,
      "é¥Ń": 4686,
      "æĸ¹ä¾¿": 4687,
      "Ġcu": 4688,
      "Ġvalue": 4689,
      "Ġfund": 4690,
      "pose": 4691,
      "è°ĥæŁ¥": 4692,
      "çĿ¡": 4693,
      "Ġcommunicate": 4694,
      "Ġdisease": 4695,
      "Ġresearc": 4696,
      "Ġlack": 4697,
      "arning": 4698,
      "ĠPark": 4699,
      "çĦ¦": 4700,
      "é«ĺåº¦": 4701,
      "Ġrather": 4702,
      "å®£": 4703,
      "çĪ¶": 4704,
      "éĺ¶": 4705,
      "è®¢": 4706,
      "çĥ§": 4707,
      "Ġhigher": 4708,
      "Ġsummary": 4709,
      "ĠAut": 4710,
      "çļĦæ³": 4711,
      "Ġele": 4712,
      "isms": 4713,
      "Ġreli": 4714,
      "ä¹Łä¼ļ": 4715,
      "fra": 4716,
      "åĳĬè¯īæĪĳ": 4717,
      "æĬ½": 4718,
      "Ġsituations": 4719,
      "Ġmarine": 4720,
      "æĥ³è¦ģ": 4721,
      "inci": 4722,
      "inal": 4723,
      "Ġgain": 4724,
      "Ġdifference": 4725,
      "æľºåĻ¨äºº": 4726,
      "æµģç¨ĭ": 4727,
      "ĠChat": 4728,
      "ç½ĳç«Ļ": 4729,
      "æľ«": 4730,
      "Ġcolor": 4731,
      "Ġaspect": 4732,
      "ç½Ĺ": 4733,
      "ĠEduc": 4734,
      "Ġdeploy": 4735,
      "Ġbeauty": 4736,
      "æĤ£": 4737,
      "ruction": 4738,
      "itut": 4739,
      "æĿŁ": 4740,
      "è®©æĪĳä»¬": 4741,
      "éķ¿åº¦": 4742,
      "ules": 4743,
      "æ¶īåıĬ": 4744,
      "Ġdigital": 4745,
      "Ġexisting": 4746,
      "ĠOr": 4747,
      "\\_\\_": 4748,
      "Ġbackground": 4749,
      "çĹĩ": 4750,
      "æ¯ıå¤©": 4751,
      "python": 4752,
      "Ġfarmers": 4753,
      "Ġcontinu": 4754,
      "\":": 4755,
      "Ġgiven": 4756,
      "å°ıæĹ¶": 4757,
      "Ġmoment": 4758,
      "200": 4759,
      "John": 4760,
      "éĿ¢å¯¹": 4761,
      "Ġintro": 4762,
      "Ġtherapy": 4763,
      "è¿ĶåĽŀ": 4764,
      "å¹¶åľ¨": 4765,
      "Ġz": 4766,
      "Ġafford": 4767,
      "ä¸Ŀ": 4768,
      "å®½": 4769,
      "ĠÃ": 4770,
      "ĠNational": 4771,
      "èĥ¡": 4772,
      "Ġexercise": 4773,
      "æĲħæĭĮ": 4774,
      "æĶ¯ä»ĺ": 4775,
      "éĺ³åħī": 4776,
      "è¯ļ": 4777,
      "Ġsect": 4778,
      "ĠSu": 4779,
      "å¢ŀéķ¿": 4780,
      "ç¾İä¸½": 4781,
      "Ġwa": 4782,
      "ä»¥ä¸ĭæĺ¯ä¸ĢäºĽ": 4783,
      "èĽĭç³ķ": 4784,
      "Ġill": 4785,
      "æ¸ħæĻ": 4786,
      "etry": 4787,
      "æ¢¦": 4788,
      "ç¾İåĽ½": 4789,
      "ä»į": 4790,
      "oney": 4791,
      "Ġecosystems": 4792,
      "æĮĩå¯¼": 4793,
      "def": 4794,
      "99": 4795,
      "æŁĶ": 4796,
      "pped": 4797,
      "Ġlimit": 4798,
      "çİī": 4799,
      "Ġacademic": 4800,
      "Ġrestaurants": 4801,
      "Ġhead": 4802,
      "ä¿¡ä»»": 4803,
      "asters": 4804,
      "å²ģ": 4805,
      "akers": 4806,
      "14": 4807,
      "As": 4808,
      "æł¡": 4809,
      "é«ĺæķĪ": 4810,
      "phas": 4811,
      "yn": 4812,
      "ç¨ĭåº¦": 4813,
      "è¾£": 4814,
      "ä¸ĬéĿ¢": 4815,
      "å®¶å±ħ": 4816,
      "term": 4817,
      "ç¾İé£Ł": 4818,
      "Ġovers": 4819,
      "å®ĺ": 4820,
      "Ġindic": 4821,
      "ĠYour": 4822,
      "St": 4823,
      "å½¢è±¡": 4824,
      "è´¡": 4825,
      "åºĬ": 4826,
      "ĠSc": 4827,
      "agra": 4828,
      "çľŁæŃ£": 4829,
      "oint": 4830,
      "ids": 4831,
      "arent": 4832,
      "éĵ¶": 4833,
      "èģĬ": 4834,
      "Ġregular": 4835,
      "ä¼ĺç§Ģ": 4836,
      "Ġcolle": 4837,
      "çĸĳ": 4838,
      "Ġsubject": 4839,
      "Ġgreater": 4840,
      "Ġstore": 4841,
      "åŁ¹è®Ń": 4842,
      "Ġimag": 4843,
      "Ġansw": 4844,
      "ä½Ļ": 4845,
      "Ġspot": 4846,
      "åĪĨåŃĲ": 4847,
      "Ġaudience": 4848,
      "pet": 4849,
      "Ġvers": 4850,
      "Ġtrail": 4851,
      "åĭĩ": 4852,
      "erous": 4853,
      "Ġguidance": 4854,
      "Ġspeech": 4855,
      "åĵ²": 4856,
      "æĺ¯çĶ±": 4857,
      "è´¡çĮ®": 4858,
      "åĲĪéĢĤçļĦ": 4859,
      "è®¾æĸ½": 4860,
      "ä»ĸäºº": 4861,
      "ensive": 4862,
      "åĢ¾": 4863,
      "aling": 4864,
      "Ġprojects": 4865,
      "å³": 4866,
      "Ġtakes": 4867,
      "ç»©": 4868,
      "That": 4869,
      "Ġbro": 4870,
      "ived": 4871,
      "Ġ&": 4872,
      "åĿĲ": 4873,
      "placement": 4874,
      "è¿ŀæİ¥": 4875,
      "çļĦç¤¾": 4876,
      "ĠTra": 4877,
      "Ġrelax": 4878,
      "ufact": 4879,
      "éģį": 4880,
      "Ġsurv": 4881,
      "åı£åĳ³": 4882,
      "Ġcreativity": 4883,
      "of": 4884,
      "å¨ģ": 4885,
      "çļĦçł": 4886,
      "Ġbreath": 4887,
      "Ġplaces": 4888,
      "Ġdescrib": 4889,
      "èĭ±è¯Ń": 4890,
      "Ġdamage": 4891,
      "oration": 4892,
      "ä¸ºæĤ¨": 4893,
      "ift": 4894,
      "Ġcase": 4895,
      "å¹´é¾Ħ": 4896,
      "Ġpress": 4897,
      "çĶľ": 4898,
      "éĩİ": 4899,
      "æĹħæ¸¸": 4900,
      "Ġtaken": 4901,
      "ined": 4902,
      "Ġconcept": 4903,
      "æĴŃ": 4904,
      "Ġinteresting": 4905,
      "è·µ": 4906,
      "Ġsea": 4907,
      "60": 4908,
      "Ġfoot": 4909,
      "ĠName": 4910,
      "Ġresearchers": 4911,
      "éĢģ": 4912,
      "Ġwee": 4913,
      ");": 4914,
      "çļĦåħ³éĶ®": 4915,
      "ä¼½": 4916,
      "elebr": 4917,
      "å¡ĳ": 4918,
      "We": 4919,
      "ç»ıå¸¸": 4920,
      "Ġpopulations": 4921,
      "åħ¬å¼ı": 4922,
      "orn": 4923,
      "çĩĥ": 4924,
      "äººçĶŁ": 4925,
      "17": 4926,
      "æİ¥åıĹ": 4927,
      "Ġlocation": 4928,
      "Ġinequ": 4929,
      "Ġintervent": 4930,
      "Ġinterested": 4931,
      "Ġdefinitely": 4932,
      "Ġassistance": 4933,
      "è¿Ļä¸Ģ": 4934,
      "åĲĪåĲĮ": 4935,
      "ä¼ĺåĬ¿": 4936,
      "çļĦå·¥ä½ľ": 4937,
      "Ġ12": 4938,
      "Ġmov": 4939,
      "åģı": 4940,
      "åŃĺåĤ¨": 4941,
      "usive": 4942,
      "æĹı": 4943,
      "ï¼īï¼Į": 4944,
      "Ġgas": 4945,
      "Ġinterests": 4946,
      "æ¸ħæĻ°": 4947,
      "Ġgard": 4948,
      "çĸ«": 4949,
      "Ġsay": 4950,
      "å¤«": 4951,
      "ges": 4952,
      "èĲ¨": 4953,
      "ä¸ļåĬ¡": 4954,
      "ä¸ªæĢ§": 4955,
      "åĲ¯": 4956,
      "Ġengagement": 4957,
      "Ġbig": 4958,
      "éľĢè¦ģèĢĥèĻĳ": 4959,
      "Ġprinci": 4960,
      "åĳ¨åĽ´": 4961,
      "Ġopportunity": 4962,
      "çģ¾": 4963,
      "èĹı": 4964,
      "rel": 4965,
      "ç¼ºçĤ¹": 4966,
      "Ġhappy": 4967,
      "åĴĮåħ¶ä»ĸ": 4968,
      "ava": 4969,
      "Ġestablish": 4970,
      "é¸¡èĽĭ": 4971,
      "iking": 4972,
      "ĠTrans": 4973,
      "rastructure": 4974,
      "forest": 4975,
      "èİ·åıĸ": 4976,
      "èĦļ": 4977,
      "inally": 4978,
      "èµı": 4979,
      "Ġdelicious": 4980,
      "Ġresults": 4981,
      "è§Ĥå¯Ł": 4982,
      "å®ŀè·µ": 4983,
      "Ġlast": 4984,
      "Ġpolit": 4985,
      "æĢ§èĥ½": 4986,
      "For": 4987,
      "bi": 4988,
      "çĽ¸ä¿¡": 4989,
      "ffee": 4990,
      "Ġphr": 4991,
      "Ġforest": 4992,
      "elling": 4993,
      "æµģè¡Į": 4994,
      "atic": 4995,
      "å¤§å®¶": 4996,
      "ĠInst": 4997,
      "æķ°åŃ¦": 4998,
      "æī©": 4999,
      "å®Įåħ¨": 5000,
      "å¼ķèµ·": 5001,
      "ese": 5002,
      "è½¬æį¢": 5003,
      "Ġaffected": 5004,
      "Ġrobotics": 5005,
      "ç»¼ä¸Ĭ": 5006,
      "Ġprop": 5007,
      "è®©äºº": 5008,
      "æ²³": 5009,
      "ä¸ŃæľĢ": 5010,
      "Ġautonomous": 5011,
      "Ġhaving": 5012,
      "Ġtrip": 5013,
      "ury": 5014,
      "Ġbiased": 5015,
      "Ġconsiderations": 5016,
      "Ġparticular": 5017,
      "åįł": 5018,
      "æİ¨å¹¿": 5019,
      "Ġinitiatives": 5020,
      "ials": 5021,
      "åĳ³éģĵ": 5022,
      "Ġtreatments": 5023,
      "Ġemphas": 5024,
      "çĭ¬çī¹çļĦ": 5025,
      "Ġlay": 5026,
      "æĶ¿çŃĸ": 5027,
      "æĢİä¹Ī": 5028,
      "ronic": 5029,
      "play": 5030,
      "Ġcook": 5031,
      "è¿Ľåħ¥": 5032,
      "è½®": 5033,
      "Ġvolunte": 5034,
      "Ġrain": 5035,
      "ĠMon": 5036,
      "Ġconsumption": 5037,
      "èĽĭçĻ½": 5038,
      "ĠSoc": 5039,
      "å£¤": 5040,
      "Ġroutine": 5041,
      "Ġimproved": 5042,
      "To": 5043,
      "äººçī©": 5044,
      "è¯»èĢħ": 5045,
      "Ġgoal": 5046,
      "å¹¿åĳĬ": 5047,
      "éķ¿æľŁ": 5048,
      "Ġey": 5049,
      "He": 5050,
      "Ġoutdo": 5051,
      "Ġcuis": 5052,
      "Ġaway": 5053,
      "Ġbooks": 5054,
      "Ġtopic": 5055,
      "å¤§åĪ©": 5056,
      "house": 5057,
      "Ġones": 5058,
      "ç§Ł": 5059,
      "':": 5060,
      "æĪ¿å±ĭ": 5061,
      "ç§»åĬ¨": 5062,
      "Ġdisasters": 5063,
      "ests": 5064,
      "illing": 5065,
      "ç»¿èī²": 5066,
      "åĵ²åŃ¦": 5067,
      "æĪĲåĪĨ": 5068,
      "Ġoccur": 5069,
      "ľä¼½": 5070,
      "åľŁå£¤": 5071,
      "çļĦä¸»è¦ģ": 5072,
      "çİ°å®ŀ": 5073,
      "Ġanimal": 5074,
      "é¢Ĩå¯¼": 5075,
      "Ġviews": 5076,
      "éĤ®": 5077,
      "æ°§åĮĸ": 5078,
      "athy": 5079,
      "éģĵå¾·": 5080,
      "ç¤¾äº¤åªĴä½ĵ": 5081,
      "ĠPersonal": 5082,
      "ĽåĽ´": 5083,
      "Ġpurch": 5084,
      "Ġcountry": 5085,
      "Ġremind": 5086,
      "å¯¸": 5087,
      "Ġrights": 5088,
      "çļĦçİ¯å¢ĥ": 5089,
      "ĠPr": 5090,
      "Ġline": 5091,
      "ibr": 5092,
      "é©¾": 5093,
      "Ġmaj": 5094,
      "Ġovercome": 5095,
      "Ġnext": 5096,
      "æīĢè¿°": 5097,
      "è§Ħå®ļ": 5098,
      "Ġinteractions": 5099,
      "Ġconflic": 5100,
      "Ġwhy": 5101,
      "ç³»åĪĹ": 5102,
      "å°¼": 5103,
      "ibly": 5104,
      "çīĽå¥¶": 5105,
      "Ġresponses": 5106,
      "ses": 5107,
      "åŃ¦ä¼ļ": 5108,
      "bol": 5109,
      "Ġstandards": 5110,
      "ulner": 5111,
      "å¯¹è¯ĿåĨħå®¹": 5112,
      "lished": 5113,
      "çļĦæĢ§": 5114,
      "çĶŁæĢģç³»ç»Ł": 5115,
      "ann": 5116,
      "æĥħåĨµä¸ĭ": 5117,
      "å¯»æ±Ĥ": 5118,
      "Ġhold": 5119,
      "den": 5120,
      "åįĥ": 5121,
      "Ġmention": 5122,
      "ĠMany": 5123,
      "çĽ´åĪ°": 5124,
      "éģĹ": 5125,
      "hel": 5126,
      "Ġbelieve": 5127,
      "aries": 5128,
      "æľīä¸Ģä¸ª": 5129,
      "13": 5130,
      "Ġatmosphere": 5131,
      "Ġmor": 5132,
      "æĹ¥æľŁ": 5133,
      "ä¹ħ": 5134,
      "ä½łå¥½": 5135,
      "Ġaddressing": 5136,
      "ĠâĢĵ": 5137,
      "çļĦåľ°æĸ¹": 5138,
      "ming": 5139,
      "Ġcannot": 5140,
      "Ġmanufact": 5141,
      "Ġpie": 5142,
      "icing": 5143,
      "Ġstudies": 5144,
      "ç¾İåĳ³": 5145,
      "ĠAmerican": 5146,
      "ĠNLP": 5147,
      "Ġaccording": 5148,
      "mselves": 5149,
      "èĦĤ": 5150,
      "èĩªä¿¡": 5151,
      "æīĢéľĢ": 5152,
      "Ġthemselves": 5153,
      "Ġremote": 5154,
      "åŁ¹åħ»": 5155,
      "å®īæİĴ": 5156,
      "ä½łéľĢè¦ģ": 5157,
      "Ġregard": 5158,
      "iring": 5159,
      "è¯ĨåĪ«": 5160,
      "Ġarticle": 5161,
      "æģĴ": 5162,
      "æĢ»çļĦæĿ¥": 5163,
      "Ġalign": 5164,
      "æ±ł": 5165,
      "tenance": 5166,
      "faction": 5167,
      "åĬ¨ä½ľ": 5168,
      "çļĦç©": 5169,
      "ç¼©": 5170,
      "æĢ¥": 5171,
      "Ġ100": 5172,
      "Ġtesting": 5173,
      "åŃĹæ¯į": 5174,
      "å¹´è½»": 5175,
      "åĪ¶éĢł": 5176,
      "Ġswe": 5177,
      "å°º": 5178,
      "hens": 5179,
      "æ°´æŀľ": 5180,
      "Ġinfrastructure": 5181,
      "èī²å½©": 5182,
      "æĢ»çļĦæĿ¥è¯´": 5183,
      "æľīä»Ģä¹Ī": 5184,
      "text": 5185,
      "è½¦è¾Ĩ": 5186,
      "Ġpay": 5187,
      "rop": 5188,
      "ĊĠĠ": 5189,
      "Ġcaused": 5190,
      "Ġcorrect": 5191,
      "Ġì": 5192,
      "èĥŀ": 5193,
      "ĠMed": 5194,
      "ç²¾ç¥ŀ": 5195,
      "æ°ĶåĢĻåıĺåĮĸ": 5196,
      "ĠRed": 5197,
      "äºĴèģĶç½ĳ": 5198,
      "Ġengage": 5199,
      "åĪĨä¸º": 5200,
      "ĠData": 5201,
      "Ġfull": 5202,
      "enc": 5203,
      "éĩįæĸ°": 5204,
      "æŃ£ç¡®çļĦ": 5205,
      "çļĦæ°Ķ": 5206,
      "åıĮæĸ¹": 5207,
      "Ġcomes": 5208,
      "åı¤ä»£": 5209,
      "æŁĲäºĽ": 5210,
      "åĳĪçİ°": 5211,
      "Ġtoday": 5212,
      "aged": 5213,
      "æĪĳåı¯ä»¥": 5214,
      "æĹ¥å¸¸": 5215,
      "æ»ĳ": 5216,
      "Ġclin": 5217,
      "Ġ\\": 5218,
      "Ġobs": 5219,
      "Ġartificial": 5220,
      "Ġexcell": 5221,
      "çļĦç¬": 5222,
      "alls": 5223,
      "Ġproduce": 5224,
      "ĠDes": 5225,
      "oss": 5226,
      "è¹Ī": 5227,
      "Ġdraw": 5228,
      "Ġletter": 5229,
      "Ġadvice": 5230,
      "Ġhighly": 5231,
      "çĬ¯": 5232,
      "ç»¼ä¸ĬæīĢè¿°": 5233,
      "æ»¡æĦı": 5234,
      "Ġprinciples": 5235,
      "èĮĦ": 5236,
      "Ġfeelings": 5237,
      "çļĦæ´": 5238,
      "Ġhom": 5239,
      "Ġfail": 5240,
      "Ġcrop": 5241,
      "å§ľ": 5242,
      "Ġquestion": 5243,
      "Ġdisabilities": 5244,
      "èĪŀè¹Ī": 5245,
      "Ġimplications": 5246,
      "ral": 5247,
      "Ġsing": 5248,
      "40": 5249,
      "Ġfamil": 5250,
      "Ġgovernments": 5251,
      "Ġrecord": 5252,
      "å½¢çĬ¶": 5253,
      "Ġbegin": 5254,
      "ises": 5255,
      "çļĦæĥ³": 5256,
      "achine": 5257,
      "è°±": 5258,
      "Ġvulner": 5259,
      "Ġproper": 5260,
      "Ġoversight": 5261,
      "è´ŁéĿ¢": 5262,
      "Ġemail": 5263,
      "Ġnews": 5264,
      "Ġexploring": 5265,
      "Ġfavor": 5266,
      "æ¥¼": 5267,
      "å®ľ": 5268,
      "Ġunivers": 5269,
      "å·®å¼Ĥ": 5270,
      "ï¼īãĢĤ": 5271,
      "è§£åĨ³éĹ®é¢ĺ": 5272,
      "Ġfamous": 5273,
      "gn": 5274,
      "Ġmessage": 5275,
      "atitude": 5276,
      "Ġcra": 5277,
      "Ġcover": 5278,
      "æ·±åĪ»": 5279,
      "åı¯ä»¥éĢīæĭ©": 5280,
      "çĶŁæ´»ä¸Ń": 5281,
      "ç§įç±»": 5282,
      "Ġsmart": 5283,
      "onstr": 5284,
      "vey": 5285,
      "çĶ²": 5286,
      "Ġregularly": 5287,
      "ĠSm": 5288,
      "æĦŁè§ī": 5289,
      "Ġthought": 5290,
      "Ġexh": 5291,
      "cure": 5292,
      "ç»ĺ": 5293,
      "è®¤è¯Ĩ": 5294,
      "Ġold": 5295,
      "æĦī": 5296,
      "ç§°ä¸º": 5297,
      "Ġfields": 5298,
      "Ġconsist": 5299,
      "ãģ": 5300,
      "ç»Ĩèĥŀ": 5301,
      "Ġhours": 5302,
      "80": 5303,
      "alking": 5304,
      "è§īå¾Ĺ": 5305,
      "ç»Ŀ": 5306,
      "ä½łä»¬": 5307,
      "ĠEnglish": 5308,
      "Ġsignificantly": 5309,
      "Ġsource": 5310,
      "Ġant": 5311,
      "Ġeducational": 5312,
      "Ġtask": 5313,
      "Ġhandle": 5314,
      "æĲľ": 5315,
      "ĠSp": 5316,
      "Ġcalled": 5317,
      "Ġterms": 5318,
      "æ²ī": 5319,
      "Ġwin": 5320,
      "duction": 5321,
      "Ġmodern": 5322,
      "Ġcuisine": 5323,
      "å¥Ĺ": 5324,
      "è§¦": 5325,
      "olutely": 5326,
      "ç«¥": 5327,
      "pite": 5328,
      "Ġfelt": 5329,
      "Ġcompre": 5330,
      "Ġwond": 5331,
      "è¿Ĳè¡Į": 5332,
      "Ġresil": 5333,
      "çĽ¸ä¼¼": 5334,
      "éĩĳèŀį": 5335,
      "çĪ±æĥħ": 5336,
      "ç¬Ķ": 5337,
      "èĪª": 5338,
      "è°Ī": 5339,
      "åĬĽçļĦ": 5340,
      "æľīæīĢ": 5341,
      "æ½ľ": 5342,
      "ulate": 5343,
      "Ġdetection": 5344,
      "å®£ä¼ł": 5345,
      "Ġmatter": 5346,
      "éĩıåŃĲ": 5347,
      "Write": 5348,
      "ç»ĵåĲĪ": 5349,
      "ç»ıè¿ĩ": 5350,
      "Ġdevelopers": 5351,
      "èª": 5352,
      "Ġ---": 5353,
      "äººéĻħ": 5354,
      "çŃ¾": 5355,
      "ï¼ļâĢľ": 5356,
      "Ġinnovative": 5357,
      "ãĢĤâĢĿ": 5358,
      "å½¼": 5359,
      "é¥¼": 5360,
      "è¿ĩåº¦": 5361,
      "Ġplanet": 5362,
      "åħ°": 5363,
      "å¸ģ": 5364,
      "æķ¬": 5365,
      "Ġlegal": 5366,
      "Ġlot": 5367,
      "æĪĲä¸ºäºĨ": 5368,
      "iate": 5369,
      "Ġmis": 5370,
      "åģĩè®¾": 5371,
      "çļĦæĸĩç«ł": 5372,
      "ĠCompan": 5373,
      "Ġdoc": 5374,
      "Ġcareful": 5375,
      "Ġever": 5376,
      "æĪĳä»¬å°Ĩ": 5377,
      "ä¾ĭåŃĲ": 5378,
      "ä¹³": 5379,
      "ä½ľèĢħ": 5380,
      "åĲ§": 5381,
      "æļ´": 5382,
      "Ġremember": 5383,
      "çĽ®çļĦ": 5384,
      "Ġput": 5385,
      "å¸¸è§ģçļĦ": 5386,
      "Ġfest": 5387,
      "å»ºè®¾": 5388,
      "å®ŀçĶ¨": 5389,
      "Ġactive": 5390,
      "çªĹ": 5391,
      "outh": 5392,
      "åİŁçĲĨ": 5393,
      "Ġtrying": 5394,
      "è¿·": 5395,
      "çĽ¸åĲĮ": 5396,
      "éħĴåºĹ": 5397,
      "Another": 5398,
      "æľĢä½³": 5399,
      "Ġanalytics": 5400,
      "Ġperpet": 5401,
      "ipment": 5402,
      "Ġå¦Ĥæŀľ": 5403,
      "è§Ĥä¼Ĺ": 5404,
      "Ġcelebr": 5405,
      "Ġheav": 5406,
      "Ġmeditation": 5407,
      "å¤§æ°Ķ": 5408,
      "And": 5409,
      "ä¸įéĶĻ": 5410,
      "Ġwhether": 5411,
      "set": 5412,
      "Ġdemonstr": 5413,
      "ä¸Ģæ¬¾": 5414,
      "æĶ¶éĽĨ": 5415,
      "éĻĲåĪ¶": 5416,
      "Ġing": 5417,
      "Ġrevolution": 5418,
      "çľģ": 5419,
      "Ġscience": 5420,
      "çĽ®åīį": 5421,
      "Ġthinking": 5422,
      "±ä¹Ĳ": 5423,
      "è¯¾ç¨ĭ": 5424,
      "Ġpack": 5425,
      "Ġimage": 5426,
      "loc": 5427,
      "Ġstories": 5428,
      "uck": 5429,
      "Ġsatisfaction": 5430,
      "Ġcollection": 5431,
      "ho": 5432,
      "èµŀ": 5433,
      "éĿ¢ä¸´": 5434,
      "Ġla": 5435,
      "Ġsymbol": 5436,
      "Ġemb": 5437,
      "Ġhabitats": 5438,
      "Ġlower": 5439,
      "Ġcontinues": 5440,
      "éľĩ": 5441,
      "åĵĪ": 5442,
      "ĠTake": 5443,
      "Ġenvironments": 5444,
      "Ġthree": 5445,
      "Ġenc": 5446,
      "ĠAcc": 5447,
      "æĦıåĳ³": 5448,
      "åİ¨": 5449,
      "chan": 5450,
      "ĠHum": 5451,
      "Ġtrue": 5452,
      "åĪĩæĪĲ": 5453,
      "sing": 5454,
      "âĢĶâĢĶ": 5455,
      "åĩºæĿ¥": 5456,
      "Ġregion": 5457,
      "Ġinterpre": 5458,
      "Ġdiagnosis": 5459,
      "éŀ": 5460,
      "Ġdoing": 5461,
      "Ġrun": 5462,
      "Ġcoffee": 5463,
      "Ġmajor": 5464,
      "Ġmindfulness": 5465,
      "Ġaffordable": 5466,
      "çĻ¾": 5467,
      "Ġdetailed": 5468,
      "éĿŀå¸¸éĩįè¦ģçļĦ": 5469,
      "çļĦæ²ŁéĢļ": 5470,
      "çļĦæķħ": 5471,
      "åĢĴåħ¥": 5472,
      "Ġthemes": 5473,
      "Ġnetwork": 5474,
      "ï¼īï¼ļ": 5475,
      "ĠUnited": 5476,
      "çļĦæĮĩ": 5477,
      "orts": 5478,
      "åį«çĶŁ": 5479,
      "Ġplanning": 5480,
      "æĥł": 5481,
      "åīª": 5482,
      "ĠProv": 5483,
      "çļĦåºĶçĶ¨": 5484,
      "Ġperi": 5485,
      "Ġaccountable": 5486,
      "çīĻ": 5487,
      "çļĦçģ": 5488,
      "Ġchoice": 5489,
      "ĠComm": 5490,
      "idents": 5491,
      "çļĦå®īåħ¨": 5492,
      "å¹¶ä¸į": 5493,
      "å¤ªéĺ³ç³»": 5494,
      "Ġreceive": 5495,
      "Ġclose": 5496,
      "çļĦæĹ¶åĢĻ": 5497,
      "Ġchanging": 5498,
      "ä»·åĢ¼è§Ĥ": 5499,
      "Ġperpetu": 5500,
      "Ġseason": 5501,
      "Ġmen": 5502,
      "Ġlearned": 5503,
      "Ġsituation": 5504,
      "Ġreplace": 5505,
      "head": 5506,
      "è®©æĪĳ": 5507,
      "åľ¨ä¸Ģèµ·": 5508,
      "çļĦç©º": 5509,
      "éľ²": 5510,
      "Ġenough": 5511,
      "å±ķçİ°": 5512,
      "Ġleaders": 5513,
      "ancing": 5514,
      "Ġtemperature": 5515,
      "åı«": 5516,
      "Ġ30": 5517,
      "æĦıåĳ³çĿĢ": 5518,
      "æ±ĩ": 5519,
      "ĠGovern": 5520,
      "Ġfocused": 5521,
      "uro": 5522,
      "Ġsimple": 5523,
      "Ġhiking": 5524,
      "æ¯Ĵ": 5525,
      "Ġcomprehens": 5526,
      "äºĪ": 5527,
      "Ġcreated": 5528,
      "cond": 5529,
      "é¡µ": 5530,
      "ĠWor": 5531,
      "è¯ģæį®": 5532,
      "Ġworkplace": 5533,
      "Ġcharacters": 5534,
      "çļĦè®¾è®¡": 5535,
      "Ġmechan": 5536,
      "ĠDis": 5537,
      "ç¥ŀç§ĺ": 5538,
      "å·ŀ": 5539,
      "ĠOn": 5540,
      "</": 5541,
      "ç§įæ¤į": 5542,
      "Ġpath": 5543,
      "Ġlimited": 5544,
      "Ġsolar": 5545,
      "çļĦæı": 5546,
      "22": 5547,
      "Ġappreciate": 5548,
      "å¿«ä¹Ĳ": 5549,
      "æĦŁåıĹåĪ°": 5550,
      "èĢĹ": 5551,
      "med": 5552,
      "icine": 5553,
      "Ġnote": 5554,
      "å½ĵåīį": 5555,
      "æĪĳä»¬åºĶè¯¥": 5556,
      "Ġseen": 5557,
      "ä¸ĢåĲį": 5558,
      "å°½åı¯èĥ½": 5559,
      "è¿Ĳç®Ĺ": 5560,
      "è§Ĵåº¦": 5561,
      "Ġequipment": 5562,
      "Ġspread": 5563,
      "è¸": 5564,
      "è®¿": 5565,
      "åı¥è¯Ŀ": 5566,
      "æĮ¥": 5567,
      "Ġpurpose": 5568,
      "è¯·ä½ł": 5569,
      "Your": 5570,
      "arian": 5571,
      "ä»ª": 5572,
      "Ġperspectives": 5573,
      "åĩºäºĨ": 5574,
      "å©ļç¤¼": 5575,
      "Ġexcellent": 5576,
      "ĠEnsuring": 5577,
      "Ġreach": 5578,
      "éĺ¶æ®µ": 5579,
      "ä¿Ŀéļľ": 5580,
      "Ġempathy": 5581,
      "ĠMy": 5582,
      "çĳľä¼½": 5583,
      "Ġver": 5584,
      "abel": 5585,
      "ĠPredict": 5586,
      "Ġmaintenance": 5587,
      "è¯Ħä»·": 5588,
      "Ġult": 5589,
      "åĴ¨": 5590,
      "ox": 5591,
      "åĴ¨è¯¢": 5592,
      "Ġshared": 5593,
      "ina": 5594,
      "list": 5595,
      "Ġoutdoor": 5596,
      "Ġthoughts": 5597,
      "inating": 5598,
      "éĴ±": 5599,
      "Ġframe": 5600,
      "éĺ¿": 5601,
      "åĪ©æ¶¦": 5602,
      "çļĦæİ¨": 5603,
      "åįļ": 5604,
      "Ġrecent": 5605,
      "Ġaltern": 5606,
      "ared": 5607,
      "==": 5608,
      "Ġroad": 5609,
      "äºĭé¡¹": 5610,
      "ged": 5611,
      "ynt": 5612,
      "Ġspend": 5613,
      "ç½ª": 5614,
      "åıĸå¾Ĺ": 5615,
      "é¹": 5616,
      "li": 5617,
      "æĹ¶æľŁ": 5618,
      "ä¸¥éĩį": 5619,
      "å¿Ĩ": 5620,
      "å©´": 5621,
      "æİ¥ä¸ĭæĿ¥": 5622,
      "ĠEarth": 5623,
      "ĠChatbots": 5624,
      "Ġsetting": 5625,
      "ç¥Ŀ": 5626,
      "éĶĢåĶ®é¢Ŀ": 5627,
      "ä¼¦": 5628,
      "Ġreading": 5629,
      "æİ¢è®¨": 5630,
      "aign": 5631,
      "éŀĭ": 5632,
      "Ġyoung": 5633,
      "Ġcareer": 5634,
      "Ġteachers": 5635,
      "çļĦè´¨éĩı": 5636,
      "å±ŀäºİ": 5637,
      "Ġeasier": 5638,
      "Ġscientific": 5639,
      "ç¾İåħĥ": 5640,
      "Ġspir": 5641,
      "åĬ³": 5642,
      "çļĦæĶ¯": 5643,
      "rist": 5644,
      "èµĦäº§": 5645,
      "çĶŁåŃĺ": 5646,
      "èĩ³å°ĳ": 5647,
      "å§¿": 5648,
      "Ġvideo": 5649,
      "Ġaim": 5650,
      "å®Ŀå®Ŀ": 5651,
      "çĪ¶æ¯į": 5652,
      "________________": 5653,
      "alities": 5654,
      "Ġbud": 5655,
      "Ġstreet": 5656,
      "Ġæĺ¯": 5657,
      "æĸ¹ç¨ĭ": 5658,
      "ä¸ĸçºª": 5659,
      "ches": 5660,
      "earch": 5661,
      "æĴ°": 5662,
      "Ġengine": 5663,
      "Ġdisplacement": 5664,
      "ĠRobots": 5665,
      "ervised": 5666,
      "é¡¶": 5667,
      "oud": 5668,
      "Ġwalk": 5669,
      "Ġemergency": 5670,
      "èģĺ": 5671,
      "nal": 5672,
      "Ġdatas": 5673,
      "åĢº": 5674,
      "åĲİçļĦ": 5675,
      "å¾Īå¥½": 5676,
      "Ġmyself": 5677,
      "çļĦæīĭ": 5678,
      "Ġusage": 5679,
      "Ġshown": 5680,
      "æ®Ĭ": 5681,
      "Ġtypically": 5682,
      "uly": 5683,
      "æĸ°éĹ»": 5684,
      "æĽ¿": 5685,
      "Ġorig": 5686,
      "è½»æĿ¾": 5687,
      "æĺ¾ç¤º": 5688,
      "Ġadopt": 5689,
      "èĤ¡ç¥¨": 5690,
      "Ġparent": 5691,
      "aps": 5692,
      "æĢĿæĥ³": 5693,
      "Ġmarketing": 5694,
      "èĻ«": 5695,
      "éĥ¨éĹ¨": 5696,
      "çļĦæķĪ": 5697,
      "Ġcomfortable": 5698,
      "åŃ¦ä¹łåĴĮ": 5699,
      "Ġforecast": 5700,
      "iction": 5701,
      "Ġgetting": 5702,
      "Ġtrees": 5703,
      "aving": 5704,
      "çļĦåŁºç¡Ģ": 5705,
      "ready": 5706,
      "æĸ°é²ľ": 5707,
      "going": 5708,
      "¹é¥": 5709,
      "Ġevidence": 5710,
      "¹é¥ª": 5711,
      "ç§ĭ": 5712,
      "æľīå¾Īå¤ļ": 5713,
      "éĿ¢è¯ķ": 5714,
      "éģĩåĪ°": 5715,
      "ç»Ļå®ļ": 5716,
      "irc": 5717,
      "åı¯ä»¥æł¹æį®": 5718,
      "é©¾é©¶": 5719,
      "å·§åħĭ": 5720,
      "Ġstunning": 5721,
      "çļĦæ¦Ĥ": 5722,
      "æ¡Į": 5723,
      "ĠJohn": 5724,
      "ulation": 5725,
      "åıĤèĢĥ": 5726,
      "Ġflex": 5727,
      "çĦ¦èĻĳ": 5728,
      "ymakers": 5729,
      "Ġforms": 5730,
      "sh": 5731,
      "val": 5732,
      "ĠSo": 5733,
      "co": 5734,
      "æİ¨åĬ¨": 5735,
      "èħ¿": 5736,
      "çī¹æ®Ĭ": 5737,
      "Ġenab": 5738,
      "å°Ĩä¼ļ": 5739,
      "æĶ¯åĩº": 5740,
      "åĿļæĮģ": 5741,
      "çº¢èī²": 5742,
      "Ġoption": 5743,
      "Ġstarted": 5744,
      "ration": 5745,
      "Ġpoetry": 5746,
      "Ġport": 5747,
      "gen": 5748,
      "èªī": 5749,
      "Ġdeliv": 5750,
      "çĶļ": 5751,
      "éĢ»": 5752,
      "éĢīé¡¹": 5753,
      "Ġground": 5754,
      "å½¼æŃ¤": 5755,
      "ana": 5756,
      "çļĦæĹ¥": 5757,
      "åľ¨çº¿": 5758,
      "Ġsecure": 5759,
      "Ġæł¹æį®": 5760,
      "é¥®æĸĻ": 5761,
      "Ġgratitude": 5762,
      "ç¬¬ä¸ī": 5763,
      "Ġsong": 5764,
      "Ġpoints": 5765,
      "Ġalready": 5766,
      "çļĦçĪ±": 5767,
      "ĠTechn": 5768,
      "Ġreality": 5769,
      "çıŃ": 5770,
      "Ġsince": 5771,
      "Ġpopulation": 5772,
      "yond": 5773,
      "bor": 5774,
      "ĠSocial": 5775,
      "æıĲåıĸ": 5776,
      "å·¥ç¨ĭ": 5777,
      "aff": 5778,
      "äº¤æĺĵ": 5779,
      "Ġworth": 5780,
      "å¡«": 5781,
      "å¨±ä¹Ĳ": 5782,
      "Ġdog": 5783,
      "ĠArt": 5784,
      "ç¡¬": 5785,
      "æµ·æ´ĭ": 5786,
      "åĨĴ": 5787,
      "çīĪ": 5788,
      "Ġprogramming": 5789,
      "ĠAss": 5790,
      "ĠMachine": 5791,
      "åĢ¼å¾Ĺ": 5792,
      "è¯·è¾ĵåħ¥": 5793,
      "å£°éŁ³": 5794,
      "Ġexercises": 5795,
      "åħīçº¿": 5796,
      "æ³ķåĴĮ": 5797,
      "Ġfeature": 5798,
      "eff": 5799,
      "è¿ĽæŃ¥": 5800,
      "å¥³æĢ§": 5801,
      "Ġefficiently": 5802,
      "çļĦæĬĢæľ¯": 5803,
      "Ġgenetic": 5804,
      "ä»¤äºº": 5805,
      "è´¦": 5806,
      "çļĦäº§åĵģ": 5807,
      "åİļ": 5808,
      "åĴĮæĸĩåĮĸ": 5809,
      "éĻĦ": 5810,
      "Ġmob": 5811,
      "ç»¼åĲĪ": 5812,
      "ters": 5813,
      "æľīä¸Ģ": 5814,
      "å¦Ĩ": 5815,
      "åįĪ": 5816,
      "Ġoutside": 5817,
      "Ġpropert": 5818,
      "éĤ®ä»¶": 5819,
      "ä¸»ä¹ī": 5820,
      "Ġpolicy": 5821,
      "èĩªèº«": 5822,
      "Ġnavigate": 5823,
      "Ġsty": 5824,
      "çĶµèĦĳ": 5825,
      "Ġabilities": 5826,
      "Ġfaced": 5827,
      "çļĦç¼": 5828,
      "çļĦå°ı": 5829,
      "èķ": 5830,
      "Ġtone": 5831,
      "igation": 5832,
      "åıĤæķ°": 5833,
      "èĽĭçĻ½è´¨": 5834,
      "ä½Ľ": 5835,
      "çĶļèĩ³": 5836,
      "Ġskin": 5837,
      "èĴ¸": 5838,
      "æĭĽ": 5839,
      "éŃĶ": 5840,
      "ashion": 5841,
      "Ġingred": 5842,
      "æĹĭ": 5843,
      "Ġcampaign": 5844,
      "Ġmount": 5845,
      "Ġconsid": 5846,
      "Ġmuse": 5847,
      "nter": 5848,
      "water": 5849,
      "ä¼ļè®®": 5850,
      "Ġprotection": 5851,
      "ä¿ĿéĻ©": 5852,
      "Ġcrops": 5853,
      "ogle": 5854,
      "éļıæĹ¶": 5855,
      "æļĹ": 5856,
      "ium": 5857,
      "ä¹ı": 5858,
      "Ġdiet": 5859,
      "lies": 5860,
      "çĶ¨æĿ¥": 5861,
      "ĠEncoura": 5862,
      "æĬĹ": 5863,
      "apan": 5864,
      "éĺ²æŃ¢": 5865,
      "Wow": 5866,
      "çļĦåŁºæľ¬": 5867,
      "å¹³æĸ¹": 5868,
      "Ġstep": 5869,
      "åı¯éĿł": 5870,
      "è¡¨æĺİ": 5871,
      "Ġpredictions": 5872,
      "Ġsympt": 5873,
      "Ġdiagnoses": 5874,
      "åħ¬åĽŃ": 5875,
      "Ġsupply": 5876,
      "Ġprevious": 5877,
      "ç»ĦåĲĪ": 5878,
      ".,": 5879,
      "çļĦè¿ĩç¨ĭ": 5880,
      "æķı": 5881,
      "su": 5882,
      "aris": 5883,
      "çķħ": 5884,
      "ocol": 5885,
      "æĲľç´¢": 5886,
      "itle": 5887,
      "éĨĴ": 5888,
      "é¡¾å®¢": 5889,
      "éĢ»è¾ĳ": 5890,
      "éĿŀå¸¸éĩįè¦ģ": 5891,
      "ĠBi": 5892,
      "å·¦åı³": 5893,
      "amm": 5894,
      "Ġeverything": 5895,
      "æĺł": 5896,
      "Ġincred": 5897,
      "Ġpeace": 5898,
      "èľľ": 5899,
      "Ġmuseum": 5900,
      "çĭ¬ç«ĭ": 5901,
      "Ġcomprehensive": 5902,
      "Ġrates": 5903,
      "//": 5904,
      "Ġrad": 5905,
      "åĦ¿ç«¥": 5906,
      "çī¹èī²": 5907,
      "ĠPredictive": 5908,
      "å¼ķåĬĽ": 5909,
      "ler": 5910,
      "å°¤": 5911,
      "icro": 5912,
      "è¡¥": 5913,
      "Ġdetermine": 5914,
      "çļĦåĨħå®¹": 5915,
      "Ġcompl": 5916,
      "Ġgreenhouse": 5917,
      "èħĲ": 5918,
      "Ġhighlight": 5919,
      "Ġpartners": 5920,
      "Ġdoct": 5921,
      "çļĦä½¿çĶ¨": 5922,
      "æŃĮæĽ²": 5923,
      "æĮĩåįĹ": 5924,
      "ĠAf": 5925,
      "æľºæŀĦ": 5926,
      "éĢĢ": 5927,
      "Ġpoems": 5928,
      "å¿ĥåĴĮ": 5929,
      "Ġattend": 5930,
      "çļĦæ¸¸": 5931,
      "Ġside": 5932,
      "ales": 5933,
      "Ġmentioned": 5934,
      "ĠAbs": 5935,
      "Ġhistorical": 5936,
      "Ġleft": 5937,
      "ä»¥ä¸ĭåĩłä¸ª": 5938,
      "åıĹæ¬¢è¿İ": 5939,
      "èıľåĵģ": 5940,
      "Ġremain": 5941,
      "æĩ": 5942,
      "Ġtours": 5943,
      "łéģĵ": 5944,
      "Ġerrors": 5945,
      "æľºåĪ¶": 5946,
      "æ¦": 5947,
      "æĤ£èĢħ": 5948,
      "more": 5949,
      "Ġexperts": 5950,
      "çļĦçłĶç©¶": 5951,
      "ç»ĵæĿŁ": 5952,
      "Ġwritten": 5953,
      "çłĶ": 5954,
      "Ġet": 5955,
      "input": 5956,
      "æ°Ķä½ĵ": 5957,
      "èļ": 5958,
      "æĥĬ": 5959,
      "Ġage": 5960,
      "éĩįå¤į": 5961,
      "å¼¹": 5962,
      "åŃ¤": 5963,
      "Ġsymptoms": 5964,
      "Ġbelief": 5965,
      "'d": 5966,
      "iol": 5967,
      "Ġ18": 5968,
      "åħħè¶³": 5969,
      "çıį": 5970,
      "forcement": 5971,
      "æĸĹ": 5972,
      "ªèĮĦ": 5973,
      "Ġ15": 5974,
      "ä¸Ģä¸ªäºº": 5975,
      "Ġapplic": 5976,
      "è´¥": 5977,
      "ä½įäºİ": 5978,
      "éĻ¤äºĨ": 5979,
      "=\"": 5980,
      "ä¸īè§Ĵ": 5981,
      "æĢĿç»´": 5982,
      "åį·": 5983,
      "Ġfru": 5984,
      "ĠCollabor": 5985,
      "Ġprim": 5986,
      "Ġrequired": 5987,
      "Ġwatch": 5988,
      "è°ĥåĳ³": 5989,
      "ç»ĵè®º": 5990,
      "ony": 5991,
      "Ġguide": 5992,
      "Ġmax": 5993,
      "ĠCould": 5994,
      "Ġadvent": 5995,
      "ĠOverall": 5996,
      "çļĦæĬķ": 5997,
      "Ġexper": 5998,
      "åĺ": 5999,
      "icial": 6000,
      "oster": 6001,
      "çļĦé¢ľèī²": 6002,
      "Ġoperations": 6003,
      "éĥģ": 6004,
      "Ġmoney": 6005,
      "ley": 6006,
      "cling": 6007,
      "Ġoil": 6008,
      "çļ®èĤ¤": 6009,
      "Ġge": 6010,
      "Ġbat": 6011,
      "ĠPh": 6012,
      "Ġsche": 6013,
      "Ġelectric": 6014,
      "vest": 6015,
      "Ġchain": 6016,
      "Ġcapabilities": 6017,
      "ird": 6018,
      "è¯ģæĺİ": 6019,
      "æľĢå¥½": 6020,
      "ivil": 6021,
      "Ġdepending": 6022,
      "Ġsave": 6023,
      "Ġpractical": 6024,
      "Ġcultures": 6025,
      "çĽ¸åºĶçļĦ": 6026,
      "sy": 6027,
      "çļĦç²": 6028,
      "Ġbehind": 6029,
      "æĹ¶éĹ´åĴĮ": 6030,
      "å¹ħ": 6031,
      "ĠAg": 6032,
      "Ġeffectiveness": 6033,
      "Ad": 6034,
      "ĠOf": 6035,
      "Ġanything": 6036,
      "å·§åħĭåĬĽ": 6037,
      "Ġmist": 6038,
      "Ġlanguages": 6039,
      "ĠMake": 6040,
      "å«": 6041,
      "æ£®": 6042,
      "ĠCont": 6043,
      "ĠAbsolutely": 6044,
      "Ġinvestment": 6045,
      "mat": 6046,
      "çļĦæķħäºĭ": 6047,
      "æ¬§": 6048,
      "Ġspeed": 6049,
      "çļĦæ¸©": 6050,
      "Ġcities": 6051,
      "åĨĻä½ľ": 6052,
      "Thanks": 6053,
      "Ġded": 6054,
      "åĪĨéħį": 6055,
      "Ġdark": 6056,
      "Ġsupporting": 6057,
      "å¹ķ": 6058,
      "ĠKe": 6059,
      "éĽ¶": 6060,
      "Ġsharing": 6061,
      "Ġhouse": 6062,
      "è®¤çŁ¥": 6063,
      "Ġsurrounding": 6064,
      "Ġreduced": 6065,
      "Ġfu": 6066,
      "Ġstor": 6067,
      "Ġabs": 6068,
      "Tom": 6069,
      "cent": 6070,
      "ĠEducation": 6071,
      "Ġthr": 6072,
      "ott": 6073,
      "ĠThat": 6074,
      "Ġhear": 6075,
      "ung": 6076,
      "Ġbeyond": 6077,
      "ĠCo": 6078,
      "room": 6079,
      "è¯ĹæŃĮ": 6080,
      "reme": 6081,
      "Ġlittle": 6082,
      "Ġgames": 6083,
      "ä¹ĭåĲİ": 6084,
      "éĥ½ä¼ļ": 6085,
      "è¯ŃéŁ³": 6086,
      "ç¬ĳ": 6087,
      "çī¹å®ļ": 6088,
      "ç¬¬ä¸Ģ": 6089,
      "Ġdepression": 6090,
      "Ġinnovation": 6091,
      "ĠFr": 6092,
      "Ġcomputer": 6093,
      "can": 6094,
      "å³°": 6095,
      "ç¼ĸåĨĻä¸Ģä¸ª": 6096,
      "Ġinternational": 6097,
      "Ġcancer": 6098,
      "åŃ¦èĢħ": 6099,
      "Ġdiscover": 6100,
      "het": 6101,
      "Ġcompos": 6102,
      "Ġrecy": 6103,
      "Ġ200": 6104,
      "åĲ«æľī": 6105,
      "çĹĽ": 6106,
      "ç¼ĵè§£": 6107,
      "Ġfrequ": 6108,
      "çĶ³": 6109,
      "ĠMar": 6110,
      "çļĦéĢīæĭ©": 6111,
      "Ġunt": 6112,
      "Ġregions": 6113,
      "Ġopin": 6114,
      "ĠGovernments": 6115,
      "æ¶Ĥ": 6116,
      "åĨħå¿ĥ": 6117,
      "ä¸ĬæľĢ": 6118,
      "ä»įçĦ¶": 6119,
      "lier": 6120,
      "æ³³": 6121,
      "äºĴçĽ¸": 6122,
      "ĠStud": 6123,
      "azon": 6124,
      "Ġarch": 6125,
      "Ġchem": 6126,
      "çļĦèĥ½åĬĽ": 6127,
      "çļĦä¸Ģä¸ª": 6128,
      "Ġap": 6129,
      "Ġred": 6130,
      "Ġwomen": 6131,
      "Ġprote": 6132,
      "Ġfinding": 6133,
      "å§»": 6134,
      "éĢĤå½ĵçļĦ": 6135,
      "Ġforward": 6136,
      "å¯¹è±¡": 6137,
      "Ġwait": 6138,
      "Ġconsidered": 6139,
      "dule": 6140,
      "backs": 6141,
      "Ġclinical": 6142,
      "åħ·å¤ĩ": 6143,
      "éº¦": 6144,
      "Ġongoing": 6145,
      "åĨĽ": 6146,
      "Ġfar": 6147,
      "åĴĮè°": 6148,
      "XXX": 6149,
      "Ġpolitical": 6150,
      "Ġcamer": 6151,
      "çļĦè¡Įä¸º": 6152,
      "æĦıå¤§åĪ©": 6153,
      "Ġapps": 6154,
      "åĩıè½»": 6155,
      "Ġreaders": 6156,
      "å©ļå§»": 6157,
      "æ°¸": 6158,
      "ores": 6159,
      "åħ¨éĿ¢": 6160,
      "ĠAfric": 6161,
      "Ġfavorite": 6162,
      "Ġmill": 6163,
      "Ġdang": 6164,
      "ĠStates": 6165,
      "åĢŁ": 6166,
      "å¯¿": 6167,
      "Ġlat": 6168,
      "è¿ĩåİ»": 6169,
      "Ġtruly": 6170,
      "åĽŀçŃĶéĹ®é¢ĺ": 6171,
      "Ġcogn": 6172,
      "ä»°": 6173,
      "ĠJapan": 6174,
      "izz": 6175,
      "çļĦæĿĲ": 6176,
      "xx": 6177,
      "é¢ĺçĽ®": 6178,
      "ription": 6179,
      "éĤ£äºĽ": 6180,
      "Ġbudget": 6181,
      "Ġvast": 6182,
      "éļĲç§ģ": 6183,
      "Ġpolicymakers": 6184,
      "è¿ĺéľĢè¦ģ": 6185,
      "å¹¶æıĲä¾Ľ": 6186,
      "Ġsweet": 6187,
      "Ġgeneral": 6188,
      "æ»¤": 6189,
      "Ġbirds": 6190,
      "Ġplastic": 6191,
      "Ċĉ": 6192,
      "åĪº": 6193,
      "mental": 6194,
      "Ġinclusive": 6195,
      "Ġtopics": 6196,
      "Ġslow": 6197,
      "ä½łèĥ½": 6198,
      "è¶³å¤ŁçļĦ": 6199,
      "è§Ĩè§ī": 6200,
      "ww": 6201,
      "Ġä½¿çĶ¨": 6202,
      "æī¹": 6203,
      "æ¦Ĥå¿µ": 6204,
      "é£ŁçĶ¨": 6205,
      "èĢ³": 6206,
      "cks": 6207,
      "Ġfraud": 6208,
      "Ġingredients": 6209,
      "Ġfasc": 6210,
      "åĮĹäº¬": 6211,
      "Ġfr": 6212,
      "Ġmanufacturing": 6213,
      "Ġä½ľä¸º": 6214,
      "Ġbeach": 6215,
      "é¡¿": 6216,
      "erious": 6217,
      "å¤ĸè§Ĥ": 6218,
      "é¢Ħéĺ²": 6219,
      "æĿ¥èĩª": 6220,
      "èĤĮèĤī": 6221,
      "Ġdays": 6222,
      "Ġassign": 6223,
      "Ġadvant": 6224,
      "Ġteams": 6225,
      "é¢Ĺ": 6226,
      "nown": 6227,
      "ĠPo": 6228,
      "}{": 6229,
      "Ġminut": 6230,
      "itions": 6231,
      "Ġeasily": 6232,
      "ĠBl": 6233,
      "name": 6234,
      "åŃ¦æł¡": 6235,
      "Ġresponsibility": 6236,
      "åıĳæĮ¥": 6237,
      "Ġsensitive": 6238,
      "çŃīäºİ": 6239,
      "cious": 6240,
      "Ġsou": 6241,
      "å±ı": 6242,
      "Ġrich": 6243,
      "å½ĵçĦ¶": 6244,
      "man": 6245,
      "Ġinterpret": 6246,
      "24": 6247,
      "Ġshows": 6248,
      "èģĮåľº": 6249,
      "Ġfall": 6250,
      "è½½": 6251,
      "ä¸°å¯ĮçļĦ": 6252,
      "('": 6253,
      "ä¿®æĶ¹": 6254,
      "æĽ´æį¢": 6255,
      "Al": 6256,
      "åı¯èĥ½æĺ¯": 6257,
      "Ġrate": 6258,
      "Ġprotecting": 6259,
      "fit": 6260,
      "Ġ50": 6261,
      "Ġmovement": 6262,
      "è§Ī": 6263,
      "Ġemployee": 6264,
      "Ġdisord": 6265,
      "åĪĽæĦı": 6266,
      "äº§åĵģçļĦ": 6267,
      "æľĿ": 6268,
      "ĊĠĠĠĠĠĠĠĠĠĠĠĠĠĠĠ": 6269,
      "Ġpred": 6270,
      "Ġoffering": 6271,
      "åįģåĪĨ": 6272,
      "èĢĮä¸įæĺ¯": 6273,
      "Thank": 6274,
      "æĽ¾": 6275,
      "Ġelements": 6276,
      "ç²Ĵ": 6277,
      "Ġcourses": 6278,
      "Ġintegrated": 6279,
      "ĠCar": 6280,
      "agraph": 6281,
      "åŁºåĽł": 6282,
      "Ġinstead": 6283,
      "èĦ±": 6284,
      "åı¦ä¸Ģä¸ª": 6285,
      "å¯Ĩçłģ": 6286,
      "Ġallowed": 6287,
      "éĿ¢åĮħ": 6288,
      "çķªèĮĦ": 6289,
      "åĴĮåıĳå±ķ": 6290,
      "å°ģ": 6291,
      "Ġconnection": 6292,
      "åľ¨ä¸Ģä¸ª": 6293,
      "Ġuseful": 6294,
      "è¯Ńåı¥": 6295,
      "åĪĨå¸ĥ": 6296,
      "è¡¨æ¼Ķ": 6297,
      "æľīæĹ¶": 6298,
      "çļĦæĹħ": 6299,
      "çļĦæĢ»": 6300,
      "Ġfashion": 6301,
      "èĭ¦": 6302,
      "è¦ģæ³¨æĦı": 6303,
      "çĶŁç´ł": 6304,
      "Ġnutri": 6305,
      "èĩªè¡Į": 6306,
      "çļĦçĭ": 6307,
      "çĲĨè§£åĴĮ": 6308,
      "Ġcat": 6309,
      "æľºåĻ¨åŃ¦ä¹ł": 6310,
      "Ġexhib": 6311,
      "åĴĮæľįåĬ¡": 6312,
      "frac": 6313,
      "epend": 6314,
      "Ġimpacted": 6315,
      "Ġut": 6316,
      "æķ°ç»Ħ": 6317,
      "ĠWorld": 6318,
      "Ġanswer": 6319,
      "erse": 6320,
      "éª¨": 6321,
      "Ġartists": 6322,
      "åŃ©åŃĲçļĦ": 6323,
      "ä»Ķ": 6324,
      "çĻ»": 6325,
      "ĠAre": 6326,
      "Ġcool": 6327,
      "Ġcognitive": 6328,
      "åĲĦä¸ª": 6329,
      "like": 6330,
      "å©´åĦ¿": 6331,
      "åĪĹåĩº": 6332,
      "å¹»": 6333,
      "ront": 6334,
      "å®¶éķ¿": 6335,
      "ç¼ºä¹ı": 6336,
      "Ġcyber": 6337,
      "ilt": 6338,
      "Ġcapture": 6339,
      "åĹ": 6340,
      "åľ¨äºİ": 6341,
      "Ġthreats": 6342,
      "åĴĮç¤¾ä¼ļ": 6343,
      "Ġcells": 6344,
      "æ¸ħåįķ": 6345,
      "ĠVis": 6346,
      "æİī": 6347,
      "Ġhol": 6348,
      "åŃĲçļĦ": 6349,
      "Ch": 6350,
      "èĿ": 6351,
      "Ġsaid": 6352,
      "Ġdream": 6353,
      "unch": 6354,
      "une": 6355,
      "ĠDon": 6356,
      "å®¶äºº": 6357,
      "ç±į": 6358,
      "æĦŁåĴĮ": 6359,
      "Ġexperienced": 6360,
      "çļĦéĩįè¦ģæĢ§": 6361,
      "å¼ĥ": 6362,
      "ump": 6363,
      "éĺĲ": 6364,
      "Ġhabitat": 6365,
      "è¢ĭ": 6366,
      "Ġjo": 6367,
      "ç®Ģæ´ģ": 6368,
      "Ġbur": 6369,
      "Ġvisitors": 6370,
      "éĽħ": 6371,
      "çļĦçŁ¥": 6372,
      "Ġentire": 6373,
      "è®²è¿°": 6374,
      "äºĨä¸ĢäºĽ": 6375,
      "åįıä½ľ": 6376,
      "ĠBus": 6377,
      "å°¾": 6378,
      "çļĦæķĻ": 6379,
      "olog": 6380,
      "Ġsigns": 6381,
      "Ġspeaker": 6382,
      "çļĦéŁ³ä¹Ĳ": 6383,
      "Ġnovel": 6384,
      "å±ħæ°ĳ": 6385,
      "çļĦåıĺåĮĸ": 6386,
      "å°½éĩı": 6387,
      "Ġspirit": 6388,
      "å®Įç¾İ": 6389,
      "è´·": 6390,
      "å¿ħè¦ģçļĦ": 6391,
      "ief": 6392,
      "ç¤ºä¾ĭ": 6393,
      "Ġdiv": 6394,
      "æķ´æķ°": 6395,
      "Ġeconomy": 6396,
      "Ġethically": 6397,
      "éĻĪ": 6398,
      "Ġschools": 6399
    },
    "merges": [
      [
        "Ġ",
        "t"
      ],
      [
        "Ġ",
        "a"
      ],
      [
        "i",
        "n"
      ],
      [
        "h",
        "e"
      ],
      [
        "r",
        "e"
      ],
      [
        "ï",
        "¼"
      ],
      [
        "ä",
        "¸"
      ],
      [
        "o",
        "n"
      ],
      [
        "a",
        "t"
      ],
      [
        "ç",
        "ļ"
      ],
      [
        "çļ",
        "Ħ"
      ],
      [
        "ï¼",
        "Į"
      ],
      [
        "Ġ",
        "s"
      ],
      [
        "Ġ",
        "c"
      ],
      [
        "n",
        "d"
      ],
      [
        "ã",
        "Ģ"
      ],
      [
        "e",
        "r"
      ],
      [
        "Ġt",
        "he"
      ],
      [
        "e",
        "s"
      ],
      [
        "e",
        "n"
      ],
      [
        "o",
        "r"
      ],
      [
        "a",
        "n"
      ],
      [
        "Ġa",
        "nd"
      ],
      [
        "in",
        "g"
      ],
      [
        "Ġ",
        "p"
      ],
      [
        "i",
        "t"
      ],
      [
        "a",
        "l"
      ],
      [
        "ãĢ",
        "Ĥ"
      ],
      [
        "Ġ",
        "o"
      ],
      [
        "Ġ",
        "w"
      ],
      [
        "ä",
        "»"
      ],
      [
        "Ġt",
        "o"
      ],
      [
        "i",
        "s"
      ],
      [
        "o",
        "u"
      ],
      [
        "Ġ",
        "m"
      ],
      [
        "ä",
        "º"
      ],
      [
        "Ġ",
        "in"
      ],
      [
        "Ġ",
        "f"
      ],
      [
        "Ġ",
        "b"
      ],
      [
        "e",
        "d"
      ],
      [
        "i",
        "on"
      ],
      [
        "å",
        "ı"
      ],
      [
        "i",
        "c"
      ],
      [
        "Ġ",
        "d"
      ],
      [
        "Ġo",
        "f"
      ],
      [
        "l",
        "e"
      ],
      [
        "a",
        "r"
      ],
      [
        "r",
        "o"
      ],
      [
        "Ġ",
        "Ġ"
      ],
      [
        "å",
        "ħ"
      ],
      [
        "en",
        "t"
      ],
      [
        "æ",
        "ľ"
      ],
      [
        "Ġ",
        "e"
      ],
      [
        "å",
        "Ĵ"
      ],
      [
        "è",
        "¿"
      ],
      [
        "ä",
        "½"
      ],
      [
        "åĴ",
        "Į"
      ],
      [
        "æ",
        "Ī"
      ],
      [
        "å",
        "®"
      ],
      [
        "å",
        "Ī"
      ],
      [
        "v",
        "e"
      ],
      [
        "u",
        "s"
      ],
      [
        "Ġ",
        "re"
      ],
      [
        "Ġ",
        "h"
      ],
      [
        "Ġt",
        "h"
      ],
      [
        "a",
        "s"
      ],
      [
        "c",
        "t"
      ],
      [
        "ç",
        "Ķ"
      ],
      [
        "o",
        "m"
      ],
      [
        "å",
        "ľ"
      ],
      [
        "å",
        "¤"
      ],
      [
        "æ",
        "ĺ"
      ],
      [
        "å",
        "Ĭ"
      ],
      [
        "å",
        "Ĳ"
      ],
      [
        "ä¸",
        "Ģ"
      ],
      [
        "i",
        "m"
      ],
      [
        "è",
        "¯"
      ],
      [
        "æ",
        "ĸ"
      ],
      [
        "at",
        "ion"
      ],
      [
        "l",
        "o"
      ],
      [
        "ç",
        "»"
      ],
      [
        "Ġb",
        "e"
      ],
      [
        "ãĢ",
        "ģ"
      ],
      [
        "i",
        "d"
      ],
      [
        "Ġc",
        "an"
      ],
      [
        "i",
        "l"
      ],
      [
        "æĺ",
        "¯"
      ],
      [
        "ä",
        "¹"
      ],
      [
        "è",
        "®"
      ],
      [
        "Ġ",
        "A"
      ],
      [
        "Ġth",
        "at"
      ],
      [
        "Ġ",
        "T"
      ],
      [
        "ä»",
        "¥"
      ],
      [
        "c",
        "h"
      ],
      [
        "Ġ",
        "y"
      ],
      [
        "c",
        "e"
      ],
      [
        "ï¼",
        "ļ"
      ],
      [
        "o",
        "t"
      ],
      [
        "er",
        "s"
      ],
      [
        "Ġ",
        "n"
      ],
      [
        "é",
        "Ģ"
      ],
      [
        "r",
        "a"
      ],
      [
        "å",
        "°"
      ],
      [
        "Ġ",
        "g"
      ],
      [
        "Ġy",
        "ou"
      ],
      [
        "å",
        "Ń"
      ],
      [
        "Ġp",
        "ro"
      ],
      [
        "e",
        "t"
      ],
      [
        "å",
        "º"
      ],
      [
        "åľ",
        "¨"
      ],
      [
        "l",
        "y"
      ],
      [
        "Ġ",
        "is"
      ],
      [
        "ä¸",
        "ª"
      ],
      [
        "Ġ",
        "l"
      ],
      [
        "u",
        "r"
      ],
      [
        "Ġf",
        "or"
      ],
      [
        "åı",
        "¯"
      ],
      [
        "é",
        "ĩ"
      ],
      [
        "s",
        "t"
      ],
      [
        "çļĦ",
        "æ"
      ],
      [
        "u",
        "t"
      ],
      [
        "Ġ",
        "he"
      ],
      [
        "i",
        "f"
      ],
      [
        "ĥ",
        "½"
      ],
      [
        "ä",
        "¼"
      ],
      [
        "Ġ",
        "I"
      ],
      [
        "è",
        "¡"
      ],
      [
        "i",
        "r"
      ],
      [
        "it",
        "h"
      ],
      [
        "å",
        "¹"
      ],
      [
        "Ġa",
        "re"
      ],
      [
        "i",
        "g"
      ],
      [
        "Ġs",
        "t"
      ],
      [
        "e",
        "l"
      ],
      [
        "o",
        "l"
      ],
      [
        "å",
        "¸"
      ],
      [
        "u",
        "l"
      ],
      [
        "æ",
        "Ŀ"
      ],
      [
        "æĪ",
        "ĳ"
      ],
      [
        "Ġ",
        "on"
      ],
      [
        "è",
        "¦"
      ],
      [
        "æľ",
        "ī"
      ],
      [
        "æ",
        "Ĺ"
      ],
      [
        "å",
        "¯"
      ],
      [
        "è",
        "§"
      ],
      [
        "è¦",
        "ģ"
      ],
      [
        "Ġ",
        "us"
      ],
      [
        "a",
        "y"
      ],
      [
        "æ",
        "ķ"
      ],
      [
        "ç",
        "ī"
      ],
      [
        "o",
        "w"
      ],
      [
        "m",
        "ent"
      ],
      [
        "çĶ",
        "¨"
      ],
      [
        "es",
        "s"
      ],
      [
        "ä¸",
        "Ń"
      ],
      [
        "ä»",
        "¬"
      ],
      [
        "äº",
        "º"
      ],
      [
        "å",
        "ĩ"
      ],
      [
        "Ġe",
        "x"
      ],
      [
        "ĠĠ",
        "ĠĠ"
      ],
      [
        "å",
        "Ľ"
      ],
      [
        "å",
        "Į"
      ],
      [
        "å",
        "¼"
      ],
      [
        "Ġc",
        "on"
      ],
      [
        "s",
        "e"
      ],
      [
        "è",
        "ĥ½"
      ],
      [
        "ç",
        "İ"
      ],
      [
        "Ġa",
        "n"
      ],
      [
        "Ġw",
        "ith"
      ],
      [
        "ä¸",
        "º"
      ],
      [
        "at",
        "e"
      ],
      [
        "i",
        "v"
      ],
      [
        "a",
        "m"
      ],
      [
        "Ġa",
        "s"
      ],
      [
        "u",
        "re"
      ],
      [
        "è¿",
        "Ļ"
      ],
      [
        "å",
        "Ĩ"
      ],
      [
        "ç",
        "Ń"
      ],
      [
        "Ġ",
        "or"
      ],
      [
        "å",
        "·"
      ],
      [
        "Ġa",
        "l"
      ],
      [
        "i",
        "es"
      ],
      [
        "ç",
        "§"
      ],
      [
        "Ġ",
        "im"
      ],
      [
        "æ",
        "Ģ"
      ],
      [
        "v",
        "er"
      ],
      [
        "a",
        "b"
      ],
      [
        "äº",
        "Ĩ"
      ],
      [
        "Ġs",
        "u"
      ],
      [
        "Ġd",
        "e"
      ],
      [
        "g",
        "e"
      ],
      [
        "t",
        "h"
      ],
      [
        "åı¯",
        "ä»¥"
      ],
      [
        "è",
        "Ģ"
      ],
      [
        "ä¸",
        "į"
      ],
      [
        "å",
        "¾"
      ],
      [
        "ĠA",
        "I"
      ],
      [
        "Ġ",
        "en"
      ],
      [
        "é",
        "Ĺ"
      ],
      [
        "æ",
        "ī"
      ],
      [
        "a",
        "k"
      ],
      [
        "i",
        "ve"
      ],
      [
        "Ġm",
        "o"
      ],
      [
        "å",
        "¥"
      ],
      [
        "é",
        "Ŀ"
      ],
      [
        "ç",
        "Ľ"
      ],
      [
        "it",
        "y"
      ],
      [
        "ä",
        "¿"
      ],
      [
        "u",
        "n"
      ],
      [
        "è",
        "´"
      ],
      [
        "å",
        "į"
      ],
      [
        "Ġ",
        "it"
      ],
      [
        "Ġim",
        "p"
      ],
      [
        "e",
        "ct"
      ],
      [
        "æ",
        "ł"
      ],
      [
        "å",
        "½"
      ],
      [
        "è",
        "ĩ"
      ],
      [
        "é",
        "¢"
      ],
      [
        "å",
        "ĵ"
      ],
      [
        "æ",
        "³"
      ],
      [
        "or",
        "t"
      ],
      [
        "a",
        "d"
      ],
      [
        "æ",
        "ŀ"
      ],
      [
        "e",
        "m"
      ],
      [
        "Ġc",
        "om"
      ],
      [
        "å",
        "¦"
      ],
      [
        "he",
        "r"
      ],
      [
        "e",
        "re"
      ],
      [
        "Ġ",
        "S"
      ],
      [
        "i",
        "al"
      ],
      [
        "Ġ",
        "C"
      ],
      [
        "ĠT",
        "he"
      ],
      [
        "ç",
        "Ĳ"
      ],
      [
        "çĶ",
        "Ł"
      ],
      [
        "æ",
        "Ħ"
      ],
      [
        "p",
        "p"
      ],
      [
        "æ",
        "Ń"
      ],
      [
        "æĸ",
        "¹"
      ],
      [
        "q",
        "u"
      ],
      [
        "Ġw",
        "h"
      ],
      [
        "å¦",
        "Ĥ"
      ],
      [
        "é",
        "ľ"
      ],
      [
        "an",
        "t"
      ],
      [
        "Ġ",
        "le"
      ],
      [
        "Ġ",
        "v"
      ],
      [
        "æ",
        "ĭ"
      ],
      [
        "æ",
        "Ĭ"
      ],
      [
        "us",
        "t"
      ],
      [
        "æĹ",
        "¶"
      ],
      [
        "çŃ",
        "ī"
      ],
      [
        "å",
        "ĳ"
      ],
      [
        "å¯",
        "¹"
      ],
      [
        "t",
        "er"
      ],
      [
        "l",
        "d"
      ],
      [
        "è¡",
        "Į"
      ],
      [
        "Ġc",
        "h"
      ],
      [
        "u",
        "d"
      ],
      [
        "éľ",
        "Ģ"
      ],
      [
        "æ",
        "°"
      ],
      [
        "æĪ",
        "Ĳ"
      ],
      [
        "Ġ",
        "|"
      ],
      [
        "a",
        "c"
      ],
      [
        "a",
        "in"
      ],
      [
        "i",
        "z"
      ],
      [
        "æ",
        "ı"
      ],
      [
        "ion",
        "s"
      ],
      [
        "Ġh",
        "a"
      ],
      [
        "æ",
        "Ľ"
      ],
      [
        "-",
        "-"
      ],
      [
        "æĿ",
        "¥"
      ],
      [
        "om",
        "e"
      ],
      [
        "å",
        "¿"
      ],
      [
        "'",
        "s"
      ],
      [
        "Ġn",
        "e"
      ],
      [
        "es",
        "t"
      ],
      [
        "ä",
        "¾"
      ],
      [
        "u",
        "m"
      ],
      [
        "åĪ",
        "°"
      ],
      [
        "åľ",
        "°"
      ],
      [
        "is",
        "t"
      ],
      [
        "â",
        "Ģ"
      ],
      [
        "çī",
        "©"
      ],
      [
        "ä¸Ģ",
        "ä¸ª"
      ],
      [
        "l",
        "p"
      ],
      [
        "æ",
        "İ"
      ],
      [
        "èĩ",
        "ª"
      ],
      [
        "Ġhe",
        "lp"
      ],
      [
        "Ġthe",
        "ir"
      ],
      [
        "æ",
        "Ķ"
      ],
      [
        "ä½",
        "ľ"
      ],
      [
        "ä¼",
        "ļ"
      ],
      [
        "æ",
        "Į"
      ],
      [
        "æĪĳ",
        "ä»¬"
      ],
      [
        "n",
        "t"
      ],
      [
        "äº",
        "İ"
      ],
      [
        "åĪ",
        "Ĩ"
      ],
      [
        "re",
        "s"
      ],
      [
        "p",
        "e"
      ],
      [
        "åĩ",
        "º"
      ],
      [
        "id",
        "e"
      ],
      [
        "æ",
        "ĥ"
      ],
      [
        "Ġ",
        "H"
      ],
      [
        "è",
        "¾"
      ],
      [
        "Ġ",
        "M"
      ],
      [
        "f",
        "f"
      ],
      [
        "æ",
        "¯"
      ],
      [
        "o",
        "d"
      ],
      [
        "ic",
        "al"
      ],
      [
        "Ġw",
        "or"
      ],
      [
        "ä¸",
        "Ĭ"
      ],
      [
        "a",
        "re"
      ],
      [
        "æĽ",
        "´"
      ],
      [
        "Ġyou",
        "r"
      ],
      [
        "ä¸",
        "ĭ"
      ],
      [
        "è",
        "µ"
      ],
      [
        "ation",
        "s"
      ],
      [
        "æķ",
        "°"
      ],
      [
        "Ġt",
        "e"
      ],
      [
        "å",
        "İ"
      ],
      [
        "çĲ",
        "Ĩ"
      ],
      [
        "ĠT",
        "h"
      ],
      [
        "è¿",
        "ĩ"
      ],
      [
        "å¹",
        "¶"
      ],
      [
        "d",
        "u"
      ],
      [
        "éĿ",
        "¢"
      ],
      [
        "Ġa",
        "d"
      ],
      [
        "il",
        "l"
      ],
      [
        "æ",
        "µ"
      ],
      [
        "å¥",
        "½"
      ],
      [
        "o",
        "c"
      ],
      [
        "a",
        "ct"
      ],
      [
        "éľĢ",
        "è¦ģ"
      ],
      [
        "ä»",
        "ĸ"
      ],
      [
        "å",
        "±"
      ],
      [
        "Ġ",
        "r"
      ],
      [
        "Ġmo",
        "re"
      ],
      [
        "åŃ",
        "¦"
      ],
      [
        "ç",
        "®"
      ],
      [
        "ig",
        "h"
      ],
      [
        "äº",
        "Ľ"
      ],
      [
        "Ġ",
        "B"
      ],
      [
        "åĬ",
        "¨"
      ],
      [
        "åĵ",
        "ģ"
      ],
      [
        "è",
        "ī"
      ],
      [
        "p",
        "le"
      ],
      [
        "Ġin",
        "c"
      ],
      [
        "åĲ",
        "Į"
      ],
      [
        "Ġex",
        "p"
      ],
      [
        "ou",
        "ld"
      ],
      [
        "ä½",
        "ł"
      ],
      [
        "æ",
        "į"
      ],
      [
        "æı",
        "Ĳ"
      ],
      [
        "å¤",
        "§"
      ],
      [
        "çİ",
        "°"
      ],
      [
        "p",
        "t"
      ],
      [
        "Ġ",
        "P"
      ],
      [
        "al",
        "l"
      ],
      [
        "åĬ",
        "ł"
      ],
      [
        "ç§",
        "į"
      ],
      [
        "Ġs",
        "e"
      ],
      [
        "åĬ",
        "Ľ"
      ],
      [
        "ou",
        "t"
      ],
      [
        "Ġha",
        "ve"
      ],
      [
        "ç",
        "º"
      ],
      [
        "ä½",
        "ĵ"
      ],
      [
        "Ġpro",
        "v"
      ],
      [
        "åĮ",
        "ĸ"
      ],
      [
        "å¤",
        "ļ"
      ],
      [
        "å®",
        "ļ"
      ],
      [
        "Ġus",
        "ed"
      ],
      [
        "éĢ",
        "ļ"
      ],
      [
        "c",
        "c"
      ],
      [
        "è¿",
        "Ľ"
      ],
      [
        "æ",
        "´"
      ],
      [
        "Ġs",
        "h"
      ],
      [
        "Ġa",
        "b"
      ],
      [
        "o",
        "s"
      ],
      [
        "Ġre",
        "s"
      ],
      [
        "ĠTh",
        "is"
      ],
      [
        "ç",
        "¨"
      ],
      [
        "æĢ",
        "§"
      ],
      [
        "a",
        "ge"
      ],
      [
        "r",
        "i"
      ],
      [
        "æ",
        "¸"
      ],
      [
        "ab",
        "le"
      ],
      [
        "åŃ",
        "Ĳ"
      ],
      [
        "Ġb",
        "y"
      ],
      [
        "åı",
        "ĳ"
      ],
      [
        "éĩ",
        "ı"
      ],
      [
        "åº",
        "Ķ"
      ],
      [
        "Ġ",
        "lo"
      ],
      [
        "ä½",
        "¿"
      ],
      [
        "åħ",
        "¶"
      ],
      [
        "é",
        "«"
      ],
      [
        "é",
        "Ļ"
      ],
      [
        "é«",
        "ĺ"
      ],
      [
        "åº",
        "¦"
      ],
      [
        "è§",
        "£"
      ],
      [
        "é",
        "£"
      ],
      [
        "å°",
        "Ĩ"
      ],
      [
        "æ³",
        "ķ"
      ],
      [
        "a",
        "nd"
      ],
      [
        "ä¿",
        "Ŀ"
      ],
      [
        "an",
        "s"
      ],
      [
        "f",
        "or"
      ],
      [
        "ro",
        "m"
      ],
      [
        "re",
        "at"
      ],
      [
        "Ġp",
        "l"
      ],
      [
        "çļĦ",
        "ç"
      ],
      [
        "å¸",
        "¸"
      ],
      [
        "è",
        "½"
      ],
      [
        "Ġw",
        "e"
      ],
      [
        "è¡",
        "¨"
      ],
      [
        "ak",
        "e"
      ],
      [
        "æĪ",
        "ĸ"
      ],
      [
        "é¢",
        "ĺ"
      ],
      [
        "å",
        "Ł"
      ],
      [
        "Ġm",
        "e"
      ],
      [
        "æĸ",
        "ĩ"
      ],
      [
        "t",
        "her"
      ],
      [
        "k",
        "e"
      ],
      [
        "å®",
        "¶"
      ],
      [
        "åĲ",
        "Ī"
      ],
      [
        "æľ",
        "Ģ"
      ],
      [
        "in",
        "e"
      ],
      [
        "Ġs",
        "ome"
      ],
      [
        "ç",
        "±"
      ],
      [
        "éĩ",
        "į"
      ],
      [
        "æŀ",
        "ľ"
      ],
      [
        "Ġ",
        "W"
      ],
      [
        "Ġ",
        "E"
      ],
      [
        "é",
        "ĺ"
      ],
      [
        "ou",
        "r"
      ],
      [
        "r",
        "ou"
      ],
      [
        "ç",
        "Ĥ"
      ],
      [
        "æ",
        "±"
      ],
      [
        "åħ",
        "³"
      ],
      [
        "Ġin",
        "t"
      ],
      [
        "an",
        "ce"
      ],
      [
        "ä¹",
        "Ł"
      ],
      [
        "é",
        "ģ"
      ],
      [
        "ĠĠ",
        "Ġ"
      ],
      [
        "å®",
        "ĥ"
      ],
      [
        "a",
        "g"
      ],
      [
        "æ",
        "¬"
      ],
      [
        "0",
        "0"
      ],
      [
        "è",
        "°"
      ],
      [
        "ul",
        "t"
      ],
      [
        "y",
        "st"
      ],
      [
        "éĹ",
        "´"
      ],
      [
        "ç",
        "³"
      ],
      [
        "Ġt",
        "r"
      ],
      [
        "p",
        "l"
      ],
      [
        "ar",
        "t"
      ],
      [
        "æĦ",
        "Ł"
      ],
      [
        "æ",
        "Ĥ"
      ],
      [
        "at",
        "a"
      ],
      [
        "Ġ",
        "F"
      ],
      [
        "for",
        "m"
      ],
      [
        "è®",
        "¡"
      ],
      [
        "Ġf",
        "rom"
      ],
      [
        "Ġ",
        "D"
      ],
      [
        "éĹ",
        "®"
      ],
      [
        "igh",
        "t"
      ],
      [
        "c",
        "es"
      ],
      [
        "æį",
        "®"
      ],
      [
        "lo",
        "p"
      ],
      [
        "ä¹",
        "ĭ"
      ],
      [
        "Ġf",
        "e"
      ],
      [
        "å",
        "ģ"
      ],
      [
        "ve",
        "lop"
      ],
      [
        "Ġ",
        "1"
      ],
      [
        "åĽ",
        "ł"
      ],
      [
        "k",
        "s"
      ],
      [
        "æ",
        "²"
      ],
      [
        "Ġ",
        "u"
      ],
      [
        "å°",
        "ı"
      ],
      [
        "yst",
        "em"
      ],
      [
        "Ġd",
        "is"
      ],
      [
        "Ġ",
        "R"
      ],
      [
        "g",
        "y"
      ],
      [
        "å·",
        "¥"
      ],
      [
        "ç¨",
        "ĭ"
      ],
      [
        "å",
        "¢"
      ],
      [
        "en",
        "ce"
      ],
      [
        "è",
        "Ĥ"
      ],
      [
        "ç",
        "¡"
      ],
      [
        "Ġt",
        "ra"
      ],
      [
        "å",
        "»"
      ],
      [
        "åħ",
        "¥"
      ],
      [
        "ig",
        "n"
      ],
      [
        "al",
        "th"
      ],
      [
        "Ġsu",
        "ch"
      ],
      [
        "a",
        "ch"
      ],
      [
        "æ",
        "Ļ"
      ],
      [
        "ar",
        "n"
      ],
      [
        "Ġd",
        "ata"
      ],
      [
        "è",
        "¶"
      ],
      [
        "å®",
        "ŀ"
      ],
      [
        "s",
        "o"
      ],
      [
        "Ġde",
        "velop"
      ],
      [
        "ç",
        "¤"
      ],
      [
        "Ġa",
        "cc"
      ],
      [
        "as",
        "t"
      ],
      [
        "èĢ",
        "Į"
      ],
      [
        "Ġ",
        "\""
      ],
      [
        "Ġo",
        "ther"
      ],
      [
        "å»",
        "º"
      ],
      [
        "Ġe",
        "ff"
      ],
      [
        "ç",
        "«"
      ],
      [
        "Ġm",
        "an"
      ],
      [
        "åħ",
        "¬"
      ],
      [
        "å",
        "Ģ"
      ],
      [
        "ç",
        "Ħ"
      ],
      [
        "m",
        "s"
      ],
      [
        "å¼",
        "ı"
      ],
      [
        "èī",
        "²"
      ],
      [
        "å¾",
        "Ĺ"
      ],
      [
        "if",
        "ic"
      ],
      [
        "Ġ",
        "j"
      ],
      [
        "Ġ",
        "ro"
      ],
      [
        "Ġh",
        "as"
      ],
      [
        "ch",
        "n"
      ],
      [
        "o",
        "lo"
      ],
      [
        "åĪ",
        "¶"
      ],
      [
        "è",
        "Ĭ"
      ],
      [
        "ä½¿",
        "çĶ¨"
      ],
      [
        "ou",
        "s"
      ],
      [
        "u",
        "al"
      ],
      [
        "Ġa",
        "t"
      ],
      [
        "Ġe",
        "m"
      ],
      [
        "el",
        "l"
      ],
      [
        "Ġs",
        "ystem"
      ],
      [
        "Ġhe",
        "alth"
      ],
      [
        "it",
        "ies"
      ],
      [
        "Ġex",
        "am"
      ],
      [
        "i",
        "b"
      ],
      [
        "é",
        "Ķ"
      ],
      [
        "Ġab",
        "out"
      ],
      [
        "äº",
        "§"
      ],
      [
        "åĲ",
        "İ"
      ],
      [
        "æĦ",
        "ı"
      ],
      [
        "ç±",
        "»"
      ],
      [
        "Ġp",
        "re"
      ],
      [
        "æĤ",
        "¨"
      ],
      [
        "Ġal",
        "so"
      ],
      [
        "ent",
        "s"
      ],
      [
        "Ġin",
        "d"
      ],
      [
        "in",
        "d"
      ],
      [
        "éĢ",
        "Ĥ"
      ],
      [
        "Ġte",
        "chn"
      ],
      [
        "res",
        "s"
      ],
      [
        "æĥ",
        "ħ"
      ],
      [
        "éĹ®",
        "é¢ĺ"
      ],
      [
        "Ġus",
        "e"
      ],
      [
        "ï¼",
        "Ł"
      ],
      [
        "Ġinc",
        "l"
      ],
      [
        "Ġs",
        "pe"
      ],
      [
        "ic",
        "h"
      ],
      [
        "p",
        "s"
      ],
      [
        "æľ",
        "º"
      ],
      [
        "Ġthe",
        "y"
      ],
      [
        "i",
        "e"
      ],
      [
        "Ġh",
        "ow"
      ],
      [
        "Ġwor",
        "k"
      ],
      [
        "ä¸",
        "ļ"
      ],
      [
        "ç",
        "´"
      ],
      [
        "Ġimp",
        "ro"
      ],
      [
        "Ġle",
        "arn"
      ],
      [
        "æĸ",
        "°"
      ],
      [
        "çĤ",
        "¹"
      ],
      [
        "Ġcon",
        "t"
      ],
      [
        "ar",
        "d"
      ],
      [
        "çĦ",
        "¶"
      ],
      [
        "æľ",
        "¬"
      ],
      [
        "ç³",
        "»"
      ],
      [
        "ç¡",
        "®"
      ],
      [
        "è®",
        "¾"
      ],
      [
        "åħ",
        "·"
      ],
      [
        "éĢ",
        "ī"
      ],
      [
        "èĢ",
        "ħ"
      ],
      [
        "é",
        "ħ"
      ],
      [
        "g",
        "h"
      ],
      [
        "_",
        "_"
      ],
      [
        "Ġn",
        "ot"
      ],
      [
        "ç",
        "ľ"
      ],
      [
        "çĽ",
        "¸"
      ],
      [
        "Ġprov",
        "ide"
      ],
      [
        "å",
        "ī"
      ],
      [
        "ion",
        "al"
      ],
      [
        "Ġen",
        "s"
      ],
      [
        "ä¸",
        "İ"
      ],
      [
        "è´",
        "¨"
      ],
      [
        "ent",
        "ial"
      ],
      [
        "ç»",
        "ı"
      ],
      [
        "å¿",
        "ĥ"
      ],
      [
        "an",
        "g"
      ],
      [
        "æŃ",
        "¤"
      ],
      [
        "e",
        "nd"
      ],
      [
        "Ġp",
        "o"
      ],
      [
        "è¿Ľ",
        "è¡Į"
      ],
      [
        "ic",
        "e"
      ],
      [
        "Ġ",
        "-"
      ],
      [
        "Ġw",
        "ay"
      ],
      [
        "å·",
        "±"
      ],
      [
        "Ġ",
        "2"
      ],
      [
        "im",
        "e"
      ],
      [
        "ç",
        "½"
      ],
      [
        "èĩª",
        "å·±"
      ],
      [
        "Ġ",
        "un"
      ],
      [
        "b",
        "ot"
      ],
      [
        "Ġincl",
        "ud"
      ],
      [
        "at",
        "ed"
      ],
      [
        "æ°",
        "´"
      ],
      [
        "é",
        "ķ"
      ],
      [
        "æĮ",
        "ģ"
      ],
      [
        "ä»",
        "£"
      ],
      [
        "é",
        "¡"
      ],
      [
        "æī",
        "Ģ"
      ],
      [
        "ç",
        "Ŀ"
      ],
      [
        "pp",
        "ort"
      ],
      [
        "o",
        "od"
      ],
      [
        "i",
        "ke"
      ],
      [
        "r",
        "u"
      ],
      [
        "Ġcom",
        "m"
      ],
      [
        "Ġ",
        "L"
      ],
      [
        "ä¿",
        "¡"
      ],
      [
        "Ġ",
        "G"
      ],
      [
        "ç",
        "Ł"
      ],
      [
        "çĶ",
        "µ"
      ],
      [
        "Ġw",
        "as"
      ],
      [
        "lo",
        "w"
      ],
      [
        "er",
        "v"
      ],
      [
        "åĮ",
        "ħ"
      ],
      [
        "ĠĠĠĠ",
        "ĠĠĠĠ"
      ],
      [
        "Ġw",
        "he"
      ],
      [
        "d",
        "it"
      ],
      [
        "Ġwh",
        "ich"
      ],
      [
        "Ġcom",
        "p"
      ],
      [
        "é",
        "ª"
      ],
      [
        "o",
        "re"
      ],
      [
        "ç",
        "¾"
      ],
      [
        "Ġ",
        "="
      ],
      [
        "çī",
        "¹"
      ],
      [
        "if",
        "f"
      ],
      [
        "er",
        "t"
      ],
      [
        "æ",
        "ģ"
      ],
      [
        "r",
        "it"
      ],
      [
        "Ġre",
        "c"
      ],
      [
        "åĨ",
        "ħ"
      ],
      [
        "æĺ",
        "İ"
      ],
      [
        "or",
        "s"
      ],
      [
        "Ġp",
        "at"
      ],
      [
        "--",
        "--"
      ],
      [
        "æ",
        "Ł"
      ],
      [
        "Ġa",
        "pp"
      ],
      [
        "n",
        "s"
      ],
      [
        "åĬ",
        "¡"
      ],
      [
        "al",
        "y"
      ],
      [
        "a",
        "ce"
      ],
      [
        "æ´",
        "»"
      ],
      [
        "ä¾",
        "Ľ"
      ],
      [
        "a",
        "v"
      ],
      [
        "ä¸",
        "»"
      ],
      [
        "Ġp",
        "ers"
      ],
      [
        "ç",
        "ĥ"
      ],
      [
        "è¯",
        "¥"
      ],
      [
        "Ġm",
        "y"
      ],
      [
        "ç",
        "©"
      ],
      [
        "er",
        "i"
      ],
      [
        "è®",
        "©"
      ],
      [
        "æĬ",
        "Ģ"
      ],
      [
        "éķ",
        "¿"
      ],
      [
        "ac",
        "k"
      ],
      [
        "Ġ",
        "N"
      ],
      [
        "Ġd",
        "iff"
      ],
      [
        "Ġth",
        "is"
      ],
      [
        "å",
        "Ŀ"
      ],
      [
        "Ġens",
        "ure"
      ],
      [
        "å½",
        "ĵ"
      ],
      [
        "Ġo",
        "ut"
      ],
      [
        "Ġc",
        "l"
      ],
      [
        "Ġ",
        "k"
      ],
      [
        "é",
        "¦"
      ],
      [
        "ou",
        "nt"
      ],
      [
        "çİ",
        "¯"
      ],
      [
        "åĬ",
        "©"
      ],
      [
        "Ġtechn",
        "olo"
      ],
      [
        "Ġthe",
        "se"
      ],
      [
        "f",
        "ul"
      ],
      [
        "é",
        "ļ"
      ],
      [
        "æ",
        "·"
      ],
      [
        "ä¸Ģ",
        "äºĽ"
      ],
      [
        "Ġs",
        "oc"
      ],
      [
        "å¼",
        "Ģ"
      ],
      [
        "å¤",
        "©"
      ],
      [
        "Ġe",
        "v"
      ],
      [
        "Ġre",
        "du"
      ],
      [
        "Ġthe",
        "m"
      ],
      [
        "Ġ",
        "("
      ],
      [
        "é",
        "ĥ½"
      ],
      [
        "æĪ",
        "·"
      ],
      [
        "è",
        "·"
      ],
      [
        "åľ",
        "º"
      ],
      [
        "æ°",
        "Ķ"
      ],
      [
        "Ġ",
        "Y"
      ],
      [
        "è¯",
        "Ń"
      ],
      [
        "éĢļ",
        "è¿ĩ"
      ],
      [
        "å±",
        "ķ"
      ],
      [
        "Ġc",
        "o"
      ],
      [
        "å½",
        "±"
      ],
      [
        "ç",
        "¬"
      ],
      [
        "Ġan",
        "aly"
      ],
      [
        "æ¯",
        "Ķ"
      ],
      [
        "åħ",
        "¨"
      ],
      [
        "Ġimpro",
        "ve"
      ],
      [
        "ç»",
        "ĵ"
      ],
      [
        "å¹",
        "´"
      ],
      [
        "ç",
        "ķ"
      ],
      [
        "çĿ",
        "Ģ"
      ],
      [
        "Ġh",
        "um"
      ],
      [
        "Ġ",
        "qu"
      ],
      [
        "ç®",
        "Ĺ"
      ],
      [
        "Ġ",
        "O"
      ],
      [
        "é£",
        "Ł"
      ],
      [
        "il",
        "ity"
      ],
      [
        "Ġsystem",
        "s"
      ],
      [
        "åı",
        "ĺ"
      ],
      [
        "a",
        "il"
      ],
      [
        "ç",
        "¼"
      ],
      [
        "ç",
        "ł"
      ],
      [
        "è¿Ļ",
        "ä¸ª"
      ],
      [
        "æıĲ",
        "ä¾Ľ"
      ],
      [
        "as",
        "e"
      ],
      [
        "å",
        "ŀ"
      ],
      [
        "ment",
        "s"
      ],
      [
        "Ġp",
        "ot"
      ],
      [
        "Ġan",
        "y"
      ],
      [
        "ä½",
        "Ĩ"
      ],
      [
        "Ġcon",
        "s"
      ],
      [
        "ĠI",
        "t"
      ],
      [
        "æł",
        "¼"
      ],
      [
        "Ġa",
        "r"
      ],
      [
        "æľ",
        "¯"
      ],
      [
        "éĿ",
        "ŀ"
      ],
      [
        "Ġd",
        "o"
      ],
      [
        "Ġm",
        "ay"
      ],
      [
        "æĭ",
        "©"
      ],
      [
        "u",
        "e"
      ],
      [
        "éĢī",
        "æĭ©"
      ],
      [
        "r",
        "y"
      ],
      [
        "é",
        "ĥ"
      ],
      [
        "Ġl",
        "ike"
      ],
      [
        "on",
        "g"
      ],
      [
        "è",
        "ģ"
      ],
      [
        "`",
        "`"
      ],
      [
        "i",
        "le"
      ],
      [
        "æ±",
        "Ĥ"
      ],
      [
        "Ġne",
        "w"
      ],
      [
        "i",
        "ent"
      ],
      [
        "Ġimp",
        "act"
      ],
      [
        "è¿",
        "ĺ"
      ],
      [
        "æ³",
        "¨"
      ],
      [
        "ä¹",
        "Ī"
      ],
      [
        "çĽ",
        "®"
      ],
      [
        "âĢ",
        "ľ"
      ],
      [
        "âĢ",
        "Ŀ"
      ],
      [
        "e",
        "f"
      ],
      [
        "ä¾",
        "ĭ"
      ],
      [
        "Ġpot",
        "ential"
      ],
      [
        "o",
        "k"
      ],
      [
        "åı¯",
        "èĥ½"
      ],
      [
        "Ġtr",
        "ans"
      ],
      [
        "Ġa",
        "ct"
      ],
      [
        "ï¼",
        "ī"
      ],
      [
        "Ġspe",
        "c"
      ],
      [
        "æ",
        "¶"
      ],
      [
        "Ġw",
        "ill"
      ],
      [
        "äº",
        "¤"
      ],
      [
        "iz",
        "e"
      ],
      [
        "ç¾",
        "İ"
      ],
      [
        "å¸",
        "Ĥ"
      ],
      [
        "Ġst",
        "ud"
      ],
      [
        "p",
        "on"
      ],
      [
        "è",
        "º"
      ],
      [
        "ä¸į",
        "åĲĮ"
      ],
      [
        "on",
        "e"
      ],
      [
        "å¾",
        "Ī"
      ],
      [
        "åı",
        "Ĭ"
      ],
      [
        "å¦Ĥ",
        "æŀľ"
      ],
      [
        "çĲ",
        "ĥ"
      ],
      [
        "an",
        "ge"
      ],
      [
        "Ġne",
        "ed"
      ],
      [
        "å¤",
        "ĸ"
      ],
      [
        "et",
        "y"
      ],
      [
        "ak",
        "ing"
      ],
      [
        "è¯",
        "·"
      ],
      [
        "at",
        "er"
      ],
      [
        "Ġpers",
        "on"
      ],
      [
        "id",
        "ent"
      ],
      [
        "Ġs",
        "o"
      ],
      [
        "Ġm",
        "ake"
      ],
      [
        "å¹",
        "³"
      ],
      [
        "å¤",
        "Ł"
      ],
      [
        "èº",
        "«"
      ],
      [
        "ï¼",
        "Ī"
      ],
      [
        "Ġin",
        "form"
      ],
      [
        "æ",
        "¡"
      ],
      [
        "äº",
        "ĭ"
      ],
      [
        "åı",
        "Ĺ"
      ],
      [
        "as",
        "ed"
      ],
      [
        "il",
        "d"
      ],
      [
        "Ġof",
        "f"
      ],
      [
        "Ġthe",
        "re"
      ],
      [
        "c",
        "is"
      ],
      [
        "è",
        "¢"
      ],
      [
        "éĥ",
        "¨"
      ],
      [
        "æ¯",
        "ı"
      ],
      [
        "ra",
        "ct"
      ],
      [
        "as",
        "s"
      ],
      [
        "Ġlearn",
        "ing"
      ],
      [
        "å",
        "ĸ"
      ],
      [
        "å½",
        "¢"
      ],
      [
        "i",
        "re"
      ],
      [
        "ä»",
        "İ"
      ],
      [
        "bot",
        "s"
      ],
      [
        "è",
        "Ļ"
      ],
      [
        "å¸",
        "®"
      ],
      [
        "Ġd",
        "es"
      ],
      [
        "ĠI",
        "n"
      ],
      [
        "c",
        "ess"
      ],
      [
        "Ġp",
        "e"
      ],
      [
        "if",
        "y"
      ],
      [
        "Ġwh",
        "o"
      ],
      [
        "ä¹",
        "ł"
      ],
      [
        "æľ",
        "Ł"
      ],
      [
        "Ġexp",
        "eri"
      ],
      [
        "é",
        "Ĥ"
      ],
      [
        "Ġs",
        "c"
      ],
      [
        "e",
        "p"
      ],
      [
        "ä½",
        "ķ"
      ],
      [
        "Ġt",
        "ime"
      ],
      [
        "éĿŀ",
        "å¸¸"
      ],
      [
        "æĭ",
        "¬"
      ],
      [
        "å",
        "ķ"
      ],
      [
        "ä»¥",
        "ä¸ĭ"
      ],
      [
        "éģ",
        "ĵ"
      ],
      [
        "Ġcomm",
        "un"
      ],
      [
        "Ġc",
        "ould"
      ],
      [
        "a",
        "p"
      ],
      [
        "è",
        "Ĳ"
      ],
      [
        "è°",
        "ĥ"
      ],
      [
        "l",
        "ic"
      ],
      [
        "du",
        "ct"
      ],
      [
        "Ġit",
        "s"
      ],
      [
        "c",
        "y"
      ],
      [
        "è¯",
        "´"
      ],
      [
        "Ġm",
        "ed"
      ],
      [
        "Ġc",
        "ol"
      ],
      [
        "ul",
        "ar"
      ],
      [
        "éĩį",
        "è¦ģ"
      ],
      [
        "Ġs",
        "p"
      ],
      [
        "åĪ",
        "©"
      ],
      [
        "èµ",
        "·"
      ],
      [
        "Ġprov",
        "id"
      ],
      [
        "ic",
        "es"
      ],
      [
        "å",
        "Ļ"
      ],
      [
        "æĸ",
        "Ļ"
      ],
      [
        "Ġimp",
        "ort"
      ],
      [
        "ur",
        "al"
      ],
      [
        "åŃ",
        "Ĺ"
      ],
      [
        "Ġu",
        "nd"
      ],
      [
        "in",
        "t"
      ],
      [
        "Ġo",
        "ver"
      ],
      [
        "åı",
        "¸"
      ],
      [
        "æł",
        "¹"
      ],
      [
        "é",
        "¥"
      ],
      [
        "pl",
        "es"
      ],
      [
        "ä»ĸ",
        "ä»¬"
      ],
      [
        "g",
        "ra"
      ],
      [
        "ur",
        "ing"
      ],
      [
        "n",
        "ow"
      ],
      [
        "åį",
        "ķ"
      ],
      [
        "è¿Ļ",
        "äºĽ"
      ],
      [
        "åī",
        "į"
      ],
      [
        "å®",
        "ī"
      ],
      [
        "Ġp",
        "r"
      ],
      [
        "åĮħ",
        "æĭ¬"
      ],
      [
        "ç»",
        "Ļ"
      ],
      [
        "T",
        "he"
      ],
      [
        "ä½",
        "į"
      ],
      [
        "å",
        "§"
      ],
      [
        "ç´",
        "ł"
      ],
      [
        "åĳ",
        "ĺ"
      ],
      [
        "Ġ",
        "ident"
      ],
      [
        "åŀ",
        "ĭ"
      ],
      [
        "Ġad",
        "d"
      ],
      [
        "å¼",
        "º"
      ],
      [
        "æĺ¯",
        "ä¸Ģ"
      ],
      [
        "i",
        "p"
      ],
      [
        "g",
        "or"
      ],
      [
        "Ġsu",
        "pport"
      ],
      [
        "n",
        "e"
      ],
      [
        "Ġdiff",
        "ere"
      ],
      [
        "åħ",
        "ĥ"
      ],
      [
        "Ġas",
        "s"
      ],
      [
        "åĨ",
        "³"
      ],
      [
        "é",
        "Ľ"
      ],
      [
        "åĲ",
        "į"
      ],
      [
        "Ġg",
        "o"
      ],
      [
        "Ġtechnolo",
        "gy"
      ],
      [
        "æĢ",
        "»"
      ],
      [
        "è®",
        "®"
      ],
      [
        "Ġin",
        "ter"
      ],
      [
        "Ġin",
        "v"
      ],
      [
        "Ġo",
        "ur"
      ],
      [
        "æķ",
        "Ī"
      ],
      [
        "ust",
        "om"
      ],
      [
        "Ġre",
        "l"
      ],
      [
        "if",
        "e"
      ],
      [
        "åĻ",
        "¨"
      ],
      [
        "ing",
        "s"
      ],
      [
        "ä»",
        "·"
      ],
      [
        "Ġp",
        "art"
      ],
      [
        "è¢",
        "«"
      ],
      [
        "æī",
        "ĭ"
      ],
      [
        "ar",
        "y"
      ],
      [
        "Ġres",
        "pon"
      ],
      [
        "Ċ",
        "ĠĠĠ"
      ],
      [
        "å¥½",
        "çļĦ"
      ],
      [
        "at",
        "ive"
      ],
      [
        "å¸®",
        "åĬ©"
      ],
      [
        "ç»",
        "Ł"
      ],
      [
        "æĶ",
        "¾"
      ],
      [
        "ĠH",
        "ere"
      ],
      [
        "ç",
        "ģ"
      ],
      [
        "Ġb",
        "ut"
      ],
      [
        "æģ",
        "¯"
      ],
      [
        "æŃ",
        "£"
      ],
      [
        "ar",
        "k"
      ],
      [
        "åħ¬",
        "åı¸"
      ],
      [
        "or",
        "y"
      ],
      [
        "å¢",
        "ĥ"
      ],
      [
        "le",
        "ct"
      ],
      [
        "é",
        "Ł"
      ],
      [
        "æĥ",
        "³"
      ],
      [
        "é£",
        "İ"
      ],
      [
        "at",
        "ing"
      ],
      [
        "Ġa",
        "m"
      ],
      [
        "it",
        "s"
      ],
      [
        "æ",
        "»"
      ],
      [
        "gor",
        "ith"
      ],
      [
        "åĵ",
        "į"
      ],
      [
        "ure",
        "s"
      ],
      [
        "Ġeff",
        "ect"
      ],
      [
        "Ġsh",
        "ould"
      ],
      [
        "Ġp",
        "er"
      ],
      [
        "è",
        "±"
      ],
      [
        "ç",
        "²"
      ],
      [
        "ic",
        "t"
      ],
      [
        "Ġal",
        "gorith"
      ],
      [
        "u",
        "c"
      ],
      [
        "rou",
        "gh"
      ],
      [
        "ä»",
        "»"
      ],
      [
        "ä»",
        "¶"
      ],
      [
        "Ġbe",
        "t"
      ],
      [
        "i",
        "a"
      ],
      [
        "Ġanaly",
        "z"
      ],
      [
        "æł¹",
        "æį®"
      ],
      [
        "iz",
        "ed"
      ],
      [
        "æµ",
        "ģ"
      ],
      [
        "è§",
        "Ĥ"
      ],
      [
        "è",
        "£"
      ],
      [
        "æł",
        "ĩ"
      ],
      [
        "ir",
        "on"
      ],
      [
        "Ġc",
        "ustom"
      ],
      [
        "Ġre",
        "g"
      ],
      [
        "Ġperson",
        "al"
      ],
      [
        "èĥ½",
        "å¤Ł"
      ],
      [
        "ic",
        "s"
      ],
      [
        "iv",
        "id"
      ],
      [
        "ç",
        "Ī"
      ],
      [
        "èµ",
        "Ħ"
      ],
      [
        "æŃ",
        "¥"
      ],
      [
        "å®",
        "¹"
      ],
      [
        "åĪ",
        "Ľ"
      ],
      [
        "è",
        "Ī"
      ],
      [
        "ä¹",
        "Ĳ"
      ],
      [
        "å¯",
        "¼"
      ],
      [
        "g",
        "an"
      ],
      [
        "èĬ",
        "Ĥ"
      ],
      [
        "Ġal",
        "l"
      ],
      [
        "en",
        "s"
      ],
      [
        "am",
        "e"
      ],
      [
        "n",
        "ess"
      ],
      [
        "Ġu",
        "p"
      ],
      [
        "Ġ",
        "U"
      ],
      [
        "èĢ",
        "ĥ"
      ],
      [
        "el",
        "f"
      ],
      [
        "åĢ",
        "¼"
      ],
      [
        "å°",
        "ĳ"
      ],
      [
        "æľ",
        "į"
      ],
      [
        "ar",
        "i"
      ],
      [
        "th",
        "ical"
      ],
      [
        "v",
        "iron"
      ],
      [
        "è",
        "ĥ"
      ],
      [
        "or",
        "d"
      ],
      [
        "Ġs",
        "ign"
      ],
      [
        "éĩ",
        "Į"
      ],
      [
        "ou",
        "nd"
      ],
      [
        "o",
        "ple"
      ],
      [
        "åŁ",
        "º"
      ],
      [
        "Ġinform",
        "ation"
      ],
      [
        "Ġident",
        "ify"
      ],
      [
        "åĽ",
        "ŀ"
      ],
      [
        "Ġc",
        "re"
      ],
      [
        "éŁ",
        "³"
      ],
      [
        "ib",
        "le"
      ],
      [
        "u",
        "b"
      ],
      [
        "è¿",
        "Ĳ"
      ],
      [
        "Ġle",
        "ad"
      ],
      [
        "æ¸",
        "¸"
      ],
      [
        "æ¬",
        "¡"
      ],
      [
        "åĨ",
        "Ļ"
      ],
      [
        "éĤ",
        "£"
      ],
      [
        "g",
        "et"
      ],
      [
        "è",
        "į"
      ],
      [
        "Ġexam",
        "ple"
      ],
      [
        "ä¼",
        "ĺ"
      ],
      [
        "å½±",
        "åĵį"
      ],
      [
        "is",
        "h"
      ],
      [
        "x",
        "t"
      ],
      [
        "æ",
        "º"
      ],
      [
        "éª",
        "Į"
      ],
      [
        "o",
        "b"
      ],
      [
        "å®",
        "¢"
      ],
      [
        "å¤",
        "ĩ"
      ],
      [
        "åģ",
        "¥"
      ],
      [
        "è½",
        "¦"
      ],
      [
        "ç¤",
        "¾"
      ],
      [
        "ivid",
        "ual"
      ],
      [
        "ere",
        "d"
      ],
      [
        "l",
        "es"
      ],
      [
        "Ġen",
        "viron"
      ],
      [
        "Ġpe",
        "ople"
      ],
      [
        "æĺ",
        "Ł"
      ],
      [
        "ç",
        "ĸ"
      ],
      [
        "ç",
        "ĭ"
      ],
      [
        "Ġd",
        "et"
      ],
      [
        "æĹ",
        "ł"
      ],
      [
        "Ġ",
        "if"
      ],
      [
        "o",
        "se"
      ],
      [
        "it",
        "e"
      ],
      [
        "å¢",
        "ŀ"
      ],
      [
        "é",
        "Ĵ"
      ],
      [
        "åĲĮ",
        "æĹ¶"
      ],
      [
        "è¿",
        "°"
      ],
      [
        "æĸ¹",
        "å¼ı"
      ],
      [
        "åĽ",
        "½"
      ],
      [
        "é",
        "»"
      ],
      [
        "å¤",
        "Ħ"
      ],
      [
        "Ġexam",
        "ples"
      ],
      [
        "æ",
        "®"
      ],
      [
        "Ġint",
        "o"
      ],
      [
        "æĮ",
        "ĩ"
      ],
      [
        "Ġhum",
        "an"
      ],
      [
        "åĲ",
        "ĳ"
      ],
      [
        "ç¤",
        "º"
      ],
      [
        "æķ°",
        "æį®"
      ],
      [
        "Ġ",
        "3"
      ],
      [
        "Ġ",
        "J"
      ],
      [
        "è",
        "ı"
      ],
      [
        "çİ¯",
        "å¢ĥ"
      ],
      [
        "al",
        "s"
      ],
      [
        "ers",
        "t"
      ],
      [
        "Ġe",
        "thical"
      ],
      [
        "ç»",
        "Ħ"
      ],
      [
        "ä¼",
        "ł"
      ],
      [
        "Ġdiffere",
        "nt"
      ],
      [
        "Ġk",
        "now"
      ],
      [
        "åº",
        "ı"
      ],
      [
        "Ġind",
        "ividual"
      ],
      [
        "æıĲ",
        "é«ĺ"
      ],
      [
        "rou",
        "nd"
      ],
      [
        "å°",
        "±"
      ],
      [
        "åı",
        "ĸ"
      ],
      [
        "åŃ",
        "ĺ"
      ],
      [
        "ä¸",
        "¤"
      ],
      [
        "çŁ",
        "¥"
      ],
      [
        "our",
        "ces"
      ],
      [
        "c",
        "k"
      ],
      [
        "å",
        "£"
      ],
      [
        "in",
        "es"
      ],
      [
        "è¾",
        "¾"
      ],
      [
        "Ġman",
        "y"
      ],
      [
        "æķ",
        "´"
      ],
      [
        "æł",
        "·"
      ],
      [
        "dit",
        "ional"
      ],
      [
        "om",
        "m"
      ],
      [
        "çĶ",
        "±"
      ],
      [
        "éĢ",
        "ł"
      ],
      [
        "å®ĥ",
        "ä»¬"
      ],
      [
        "u",
        "es"
      ],
      [
        "Ġm",
        "ent"
      ],
      [
        "Ġimport",
        "ant"
      ],
      [
        "Ġo",
        "pt"
      ],
      [
        "Ġlo",
        "c"
      ],
      [
        "p",
        "h"
      ],
      [
        "Ġpro",
        "cess"
      ],
      [
        "Ġalgorith",
        "ms"
      ],
      [
        "è®¾",
        "è®¡"
      ],
      [
        "Ġsoc",
        "ial"
      ],
      [
        "ver",
        "y"
      ],
      [
        "åĪ",
        "Ļ"
      ],
      [
        "ä¾ĭ",
        "å¦Ĥ"
      ],
      [
        "è®",
        "¤"
      ],
      [
        "Ġa",
        "ut"
      ],
      [
        "Ġs",
        "erv"
      ],
      [
        "g",
        "g"
      ],
      [
        "äº§",
        "åĵģ"
      ],
      [
        "è§",
        "Ħ"
      ],
      [
        "çľ",
        "ĭ"
      ],
      [
        "ve",
        "l"
      ],
      [
        "æĸ¹",
        "æ³ķ"
      ],
      [
        "Ġb",
        "en"
      ],
      [
        "åĽł",
        "æŃ¤"
      ],
      [
        "c",
        "are"
      ],
      [
        "p",
        "er"
      ],
      [
        "åĬ",
        "Ł"
      ],
      [
        "å»º",
        "è®®"
      ],
      [
        "Ġp",
        "os"
      ],
      [
        "æ",
        "¤"
      ],
      [
        "w",
        "e"
      ],
      [
        "åĮ",
        "º"
      ],
      [
        "i",
        "qu"
      ],
      [
        "Ġre",
        "al"
      ],
      [
        "æĹ",
        "¥"
      ],
      [
        "Ġredu",
        "ce"
      ],
      [
        "a",
        "f"
      ],
      [
        "ang",
        "u"
      ],
      [
        "Ġs",
        "k"
      ],
      [
        "Ġ",
        "ed"
      ],
      [
        "erst",
        "and"
      ],
      [
        "åĨ",
        "µ"
      ],
      [
        "m",
        "ot"
      ],
      [
        "åħ",
        "Ī"
      ],
      [
        "ç",
        "¥"
      ],
      [
        "åºĶ",
        "è¯¥"
      ],
      [
        "Ġth",
        "rough"
      ],
      [
        "Ġcon",
        "c"
      ],
      [
        "åıĳ",
        "å±ķ"
      ],
      [
        "è¯",
        "ķ"
      ],
      [
        "æ¡",
        "Ī"
      ],
      [
        "Ġenviron",
        "ment"
      ],
      [
        "åı",
        "£"
      ],
      [
        "Ġad",
        "v"
      ],
      [
        "åĪ",
        "«"
      ],
      [
        "Ġben",
        "ef"
      ],
      [
        "æ¸",
        "ħ"
      ],
      [
        "åĳ",
        "³"
      ],
      [
        "åħ",
        "ī"
      ],
      [
        "Ġdevelop",
        "ment"
      ],
      [
        "en",
        "g"
      ],
      [
        "å¦Ĥ",
        "ä½ķ"
      ],
      [
        "ç®",
        "¡"
      ],
      [
        "iv",
        "ers"
      ],
      [
        "åĲ",
        "Ħ"
      ],
      [
        "Ġr",
        "is"
      ],
      [
        "ro",
        "w"
      ],
      [
        "er",
        "gy"
      ],
      [
        "è®¡",
        "ç®Ĺ"
      ],
      [
        "ä¿¡",
        "æģ¯"
      ],
      [
        "Ġpro",
        "duct"
      ],
      [
        "è¾",
        "ĥ"
      ],
      [
        "è®",
        "º"
      ],
      [
        "èĩªå·±",
        "çļĦ"
      ],
      [
        "æĬ",
        "¤"
      ],
      [
        "åı",
        "į"
      ],
      [
        "åħ¶",
        "ä»ĸ"
      ],
      [
        "åĪ",
        "Ĺ"
      ],
      [
        "ç»",
        "Ĩ"
      ],
      [
        "ç©",
        "º"
      ],
      [
        "Ġg",
        "reat"
      ],
      [
        "e",
        "ar"
      ],
      [
        "æº",
        "Ĳ"
      ],
      [
        "j",
        "ect"
      ],
      [
        "çĶŁ",
        "æ´»"
      ],
      [
        "ä¸Ń",
        "çļĦ"
      ],
      [
        "Ġund",
        "erstand"
      ],
      [
        "è",
        "ĭ"
      ],
      [
        "h",
        "at"
      ],
      [
        "Ġpro",
        "gra"
      ],
      [
        "ç",
        "Ĭ"
      ],
      [
        "éĩ",
        "ĳ"
      ],
      [
        "Ġinclud",
        "ing"
      ],
      [
        "Ġacc",
        "ess"
      ],
      [
        "ĠĠĠĠ",
        "ĠĠĠ"
      ],
      [
        "è¯",
        "Ĩ"
      ],
      [
        "ç",
        "¦"
      ],
      [
        "o",
        "g"
      ],
      [
        "è£",
        "ħ"
      ],
      [
        "Ġar",
        "t"
      ],
      [
        "Ġw",
        "rit"
      ],
      [
        "Ġinc",
        "re"
      ],
      [
        "Ġp",
        "h"
      ],
      [
        "æĸ¹",
        "éĿ¢"
      ],
      [
        "Ġp",
        "ract"
      ],
      [
        "Ġus",
        "ing"
      ],
      [
        "é¡",
        "¹"
      ],
      [
        "æİ",
        "¥"
      ],
      [
        "Ġway",
        "s"
      ],
      [
        "Ġl",
        "angu"
      ],
      [
        "æĶ",
        "¯"
      ],
      [
        "Ġch",
        "all"
      ],
      [
        "åİ",
        "»"
      ],
      [
        "__",
        "__"
      ],
      [
        "im",
        "ate"
      ],
      [
        "æĸ",
        "Ń"
      ],
      [
        "è",
        "¨"
      ],
      [
        "Ġw",
        "ell"
      ],
      [
        "l",
        "l"
      ],
      [
        "Ġp",
        "ol"
      ],
      [
        "æĢ",
        "ģ"
      ],
      [
        "Ġ",
        "ra"
      ],
      [
        "C",
        "an"
      ],
      [
        "åİ",
        "Ł"
      ],
      [
        "b",
        "er"
      ],
      [
        "è¨",
        "Ģ"
      ],
      [
        "ç«",
        "ĭ"
      ],
      [
        "Ġg",
        "en"
      ],
      [
        "éħ",
        "į"
      ],
      [
        "æ·",
        "±"
      ],
      [
        "t",
        "e"
      ],
      [
        "ä¸",
        "ī"
      ],
      [
        "ç§",
        "ĳ"
      ],
      [
        "ĠF",
        "or"
      ],
      [
        "çº",
        "¿"
      ],
      [
        "ç",
        "ħ"
      ],
      [
        "æ",
        "¼"
      ],
      [
        "åķ",
        "Ĩ"
      ],
      [
        "æĿ",
        "Ĳ"
      ],
      [
        "Ġsign",
        "ific"
      ],
      [
        "Ġg",
        "u"
      ],
      [
        "Ġde",
        "cis"
      ],
      [
        "Ġtra",
        "in"
      ],
      [
        "Ġa",
        "g"
      ],
      [
        "Ġc",
        "reat"
      ],
      [
        "å®",
        "Į"
      ],
      [
        "æĹ¶",
        "éĹ´"
      ],
      [
        "Ġon",
        "e"
      ],
      [
        "è",
        "Ħ"
      ],
      [
        "Ġn",
        "at"
      ],
      [
        "åŃ¦",
        "ä¹ł"
      ],
      [
        "çļĦæ",
        "ķ"
      ],
      [
        "c",
        "ed"
      ],
      [
        "Ġwhe",
        "n"
      ],
      [
        "Ġb",
        "i"
      ],
      [
        "è",
        "İ"
      ],
      [
        "æĽ´",
        "åĬł"
      ],
      [
        "iv",
        "es"
      ],
      [
        "p",
        "ort"
      ],
      [
        "å·¥",
        "ä½ľ"
      ],
      [
        "v",
        "ing"
      ],
      [
        "Ġbe",
        "en"
      ],
      [
        "æĻ",
        "º"
      ],
      [
        "Ġl",
        "ife"
      ],
      [
        "å¼",
        "ķ"
      ],
      [
        "ar",
        "m"
      ],
      [
        "çİ",
        "ĩ"
      ],
      [
        "çĶ¨",
        "æĪ·"
      ],
      [
        "ä¹",
        "ī"
      ],
      [
        "ä»",
        "½"
      ],
      [
        "è¯",
        "Ŀ"
      ],
      [
        "in",
        "ess"
      ],
      [
        "c",
        "om"
      ],
      [
        "åº",
        "·"
      ],
      [
        "åĩ",
        "ı"
      ],
      [
        "ä»",
        "Ģ"
      ],
      [
        "è¾",
        "ĵ"
      ],
      [
        "Ġv",
        "ari"
      ],
      [
        "c",
        "on"
      ],
      [
        "Ġmo",
        "d"
      ],
      [
        "ä»Ģ",
        "ä¹Ī"
      ],
      [
        "Ġen",
        "ergy"
      ],
      [
        "æĬĢ",
        "æľ¯"
      ],
      [
        "ert",
        "ain"
      ],
      [
        "m",
        "m"
      ],
      [
        "ver",
        "all"
      ],
      [
        "åĪ",
        "Ĵ"
      ],
      [
        "Ġro",
        "bots"
      ],
      [
        "Ġor",
        "gan"
      ],
      [
        "æİ",
        "¨"
      ],
      [
        "ant",
        "s"
      ],
      [
        "åĩ",
        "Ĩ"
      ],
      [
        "d",
        "s"
      ],
      [
        "æŀ",
        "ģ"
      ],
      [
        "ç",
        "Ļ"
      ],
      [
        "Ġre",
        "qu"
      ],
      [
        "Ġ",
        "ess"
      ],
      [
        "ç®",
        "Ģ"
      ],
      [
        "ust",
        "ain"
      ],
      [
        "æ",
        "¨"
      ],
      [
        "Ġst",
        "r"
      ],
      [
        "c",
        "ing"
      ],
      [
        "ab",
        "ility"
      ],
      [
        "re",
        "e"
      ],
      [
        "Ġed",
        "uc"
      ],
      [
        "åİ",
        "Ĩ"
      ],
      [
        "Ġcre",
        "ate"
      ],
      [
        "åģ¥",
        "åº·"
      ],
      [
        "Ġdes",
        "ign"
      ],
      [
        "i",
        "ps"
      ],
      [
        "åģ",
        "ļ"
      ],
      [
        "èĬ",
        "±"
      ],
      [
        "in",
        "k"
      ],
      [
        "èı",
        "ľ"
      ],
      [
        "æī",
        "¾"
      ],
      [
        "æ®",
        "µ"
      ],
      [
        "æµ",
        "ĭ"
      ],
      [
        "Ġ",
        "V"
      ],
      [
        "ĠB",
        "y"
      ],
      [
        "å",
        "Ķ"
      ],
      [
        "é¦",
        "ĸ"
      ],
      [
        "è¯",
        "į"
      ],
      [
        "Ġwhe",
        "re"
      ],
      [
        "Ġdis",
        "c"
      ],
      [
        "äºĨ",
        "è§£"
      ],
      [
        "r",
        "ic"
      ],
      [
        "ä¸",
        "Ķ"
      ],
      [
        "è¶",
        "³"
      ],
      [
        "æĺ¯",
        "ä¸Ģä¸ª"
      ],
      [
        "ar",
        "ch"
      ],
      [
        "ç§",
        "¯"
      ],
      [
        "å¸",
        "¦"
      ],
      [
        "Ġwh",
        "ile"
      ],
      [
        "Ġsignific",
        "ant"
      ],
      [
        "çł",
        "ģ"
      ],
      [
        "æĪ",
        "¿"
      ],
      [
        "Ġbe",
        "ing"
      ],
      [
        "Ġlangu",
        "age"
      ],
      [
        "it",
        "ive"
      ],
      [
        "2",
        "0"
      ],
      [
        "Ġanalyz",
        "e"
      ],
      [
        "æĻ",
        "¯"
      ],
      [
        "è",
        "Į"
      ],
      [
        "ri",
        "b"
      ],
      [
        "æ¨",
        "¡"
      ],
      [
        "ĠS",
        "t"
      ],
      [
        "è´",
        "¹"
      ],
      [
        "'",
        "t"
      ],
      [
        "Ġhealth",
        "care"
      ],
      [
        "Ġexperi",
        "ence"
      ],
      [
        "Ġ",
        "5"
      ],
      [
        "ä¸ª",
        "äºº"
      ],
      [
        "ay",
        "s"
      ],
      [
        "è±",
        "¡"
      ],
      [
        "p",
        "lo"
      ],
      [
        "Ġw",
        "ould"
      ],
      [
        "èĻ",
        "ĳ"
      ],
      [
        "æĶ",
        "¶"
      ],
      [
        "é¢",
        "Ħ"
      ],
      [
        "é¢",
        "Ĩ"
      ],
      [
        "ä¿Ŀ",
        "æĮģ"
      ],
      [
        "en",
        "ces"
      ],
      [
        "åı",
        "ª"
      ],
      [
        "èĩ",
        "´"
      ],
      [
        "æĪ",
        "ı"
      ],
      [
        "Ġment",
        "al"
      ],
      [
        "Ġfe",
        "w"
      ],
      [
        "at",
        "es"
      ],
      [
        "è¿ĩ",
        "ç¨ĭ"
      ],
      [
        "å®ī",
        "åħ¨"
      ],
      [
        "Ġs",
        "ustain"
      ],
      [
        "Ġw",
        "ere"
      ],
      [
        "å¤",
        "ª"
      ],
      [
        "ç",
        "Į"
      ],
      [
        "Ġspec",
        "ific"
      ],
      [
        "Ġwor",
        "ld"
      ],
      [
        "çŃ",
        "Ķ"
      ],
      [
        "``",
        "`"
      ],
      [
        "Ġt",
        "ake"
      ],
      [
        "åħ",
        "»"
      ],
      [
        "éĢ",
        "Ł"
      ],
      [
        "e",
        "ver"
      ],
      [
        "S",
        "S"
      ],
      [
        "éĶ",
        "Ģ"
      ],
      [
        "Ġb",
        "o"
      ],
      [
        "he",
        "s"
      ],
      [
        "Ġm",
        "us"
      ],
      [
        "æľį",
        "åĬ¡"
      ],
      [
        "è§",
        "Ĵ"
      ],
      [
        "t",
        "en"
      ],
      [
        "æŀ",
        "Ĳ"
      ],
      [
        "p",
        "ow"
      ],
      [
        "d",
        "ict"
      ],
      [
        "v",
        "ent"
      ],
      [
        "1",
        "0"
      ],
      [
        "çļĦæ",
        "Ĺ"
      ],
      [
        "ĸ",
        "çķ"
      ],
      [
        "Ġpro",
        "t"
      ],
      [
        "ç½",
        "®"
      ],
      [
        "Ġh",
        "igh"
      ],
      [
        "Ġb",
        "us"
      ],
      [
        "Ġind",
        "ust"
      ],
      [
        "åĲ",
        "¦"
      ],
      [
        "c",
        "ial"
      ],
      [
        "äºº",
        "ä»¬"
      ],
      [
        "ĠA",
        "s"
      ],
      [
        "åĳ",
        "Ĭ"
      ],
      [
        "ad",
        "e"
      ],
      [
        "æĶ",
        "¹"
      ],
      [
        "ç",
        "Ĺ"
      ],
      [
        "Ġh",
        "ad"
      ],
      [
        "Ġhe",
        "r"
      ],
      [
        "Ġj",
        "ust"
      ],
      [
        "ï¼",
        "Ľ"
      ],
      [
        "è´",
        "Ń"
      ],
      [
        "ç¬",
        "¬"
      ],
      [
        "é",
        "ĵ"
      ],
      [
        "Ġw",
        "ater"
      ],
      [
        "Ġf",
        "ood"
      ],
      [
        "éĺ",
        "Ł"
      ],
      [
        "a",
        "us"
      ],
      [
        "Ġchall",
        "eng"
      ],
      [
        "åħ",
        "į"
      ],
      [
        "æĸĩ",
        "åĮĸ"
      ],
      [
        "Ġmo",
        "st"
      ],
      [
        "é",
        "¸"
      ],
      [
        "ç½",
        "ĳ"
      ],
      [
        "çĽ",
        "´"
      ],
      [
        "Ġs",
        "m"
      ],
      [
        "Ġact",
        "iv"
      ],
      [
        "plo",
        "y"
      ],
      [
        "O",
        "verall"
      ],
      [
        "å¿",
        "«"
      ],
      [
        "ru",
        "ct"
      ],
      [
        "Ġindividual",
        "s"
      ],
      [
        "å§",
        "ĭ"
      ],
      [
        "g",
        "ies"
      ],
      [
        "æŁ",
        "¥"
      ],
      [
        "çĪ",
        "±"
      ],
      [
        "i",
        "ety"
      ],
      [
        "I",
        "n"
      ],
      [
        "åĪĨ",
        "æŀĲ"
      ],
      [
        "è§",
        "Ĩ"
      ],
      [
        "æ¸",
        "©"
      ],
      [
        "ç»",
        "´"
      ],
      [
        "ol",
        "ut"
      ],
      [
        "åŁ",
        "Ł"
      ],
      [
        "omm",
        "end"
      ],
      [
        "Ġcom",
        "ple"
      ],
      [
        "æķ",
        "Ļ"
      ],
      [
        "Ġb",
        "u"
      ],
      [
        "Ġeduc",
        "ation"
      ],
      [
        "at",
        "her"
      ],
      [
        "Ġ",
        "4"
      ],
      [
        "t",
        "ing"
      ],
      [
        "Ġf",
        "ind"
      ],
      [
        "æ²",
        "¡"
      ],
      [
        "Ġh",
        "is"
      ],
      [
        "ä¹ĭ",
        "éĹ´"
      ],
      [
        "Ġeffect",
        "ive"
      ],
      [
        "Ġat",
        "t"
      ],
      [
        "Ġre",
        "se"
      ],
      [
        "èĥ½",
        "åĬĽ"
      ],
      [
        "åŁ",
        "İ"
      ],
      [
        "Ġal",
        "low"
      ],
      [
        "Ġa",
        "v"
      ],
      [
        "Ġpro",
        "mot"
      ],
      [
        "æĻº",
        "èĥ½"
      ],
      [
        "æ»",
        "¡"
      ],
      [
        "åħ",
        "±"
      ],
      [
        "ie",
        "w"
      ],
      [
        "c",
        "ome"
      ],
      [
        "ç³»",
        "ç»Ł"
      ],
      [
        "Ġrespon",
        "s"
      ],
      [
        "äº",
        "Ĵ"
      ],
      [
        "Ġc",
        "ult"
      ],
      [
        "pow",
        "ered"
      ],
      [
        "Ġrec",
        "ommend"
      ],
      [
        "èĲ",
        "¥"
      ],
      [
        "O",
        "SS"
      ],
      [
        "Ġch",
        "ange"
      ],
      [
        "è¯",
        "ģ"
      ],
      [
        "v",
        "ed"
      ],
      [
        "æİ",
        "Ĵ"
      ],
      [
        "è§£",
        "åĨ³"
      ],
      [
        "ic",
        "i"
      ],
      [
        "ĠH",
        "ow"
      ],
      [
        "Ġfe",
        "el"
      ],
      [
        "æľ",
        "Ī"
      ],
      [
        "Ġwh",
        "at"
      ],
      [
        "ä»¥",
        "åıĬ"
      ],
      [
        "Ġse",
        "e"
      ],
      [
        "åŃ",
        "©"
      ],
      [
        "b",
        "s"
      ],
      [
        "Ġs",
        "ur"
      ],
      [
        "æ",
        "£"
      ],
      [
        "al",
        "ity"
      ],
      [
        "Ġv",
        "is"
      ],
      [
        "ç¡®",
        "ä¿Ŀ"
      ],
      [
        "p",
        "ect"
      ],
      [
        "å®ŀ",
        "çİ°"
      ],
      [
        "Ġc",
        "are"
      ],
      [
        "å¹",
        "¿"
      ],
      [
        "ill",
        "s"
      ],
      [
        "åº",
        "Ń"
      ],
      [
        "as",
        "es"
      ],
      [
        "å¤",
        "į"
      ],
      [
        "åºĶ",
        "çĶ¨"
      ],
      [
        "çļĦæ",
        "ĥ"
      ],
      [
        "ard",
        "s"
      ],
      [
        "Ġadd",
        "ress"
      ],
      [
        "Ġcomp",
        "an"
      ],
      [
        "Ġinv",
        "ol"
      ],
      [
        "Ġcustom",
        "er"
      ],
      [
        "åĽł",
        "ä¸º"
      ],
      [
        "Ġstud",
        "ents"
      ],
      [
        "Ġin",
        "s"
      ],
      [
        "æ³¨",
        "æĦı"
      ],
      [
        "æŀ",
        "Ħ"
      ],
      [
        "æ¬",
        "¢"
      ],
      [
        "æµ",
        "·"
      ],
      [
        "åı",
        "Ĥ"
      ],
      [
        "èĩª",
        "çĦ¶"
      ],
      [
        "é",
        "©"
      ],
      [
        "ĠThe",
        "se"
      ],
      [
        "w",
[...]
